{
  "version": "1.0",
  "truncation": null,
  "padding": null,
  "added_tokens": [
    {
      "id": 0,
      "content": "<|endoftext|>",
      "single_word": false,
      "lstrip": false,
      "rstrip": false,
      "normalized": false,
      "special": true
    },
    {
      "id": 1,
      "content": "<|im_start|>",
      "single_word": false,
      "lstrip": false,
      "rstrip": false,
      "normalized": false,
      "special": true
    },
    {
      "id": 2,
      "content": "<|im_end|>",
      "single_word": false,
      "lstrip": false,
      "rstrip": false,
      "normalized": false,
      "special": true
    },
    {
      "id": 3,
      "content": "<think>",
      "single_word": false,
      "lstrip": false,
      "rstrip": false,
      "normalized": false,
      "special": true
    },
    {
      "id": 4,
      "content": "</think>",
      "single_word": false,
      "lstrip": false,
      "rstrip": false,
      "normalized": false,
      "special": true
    },
    {
      "id": 5,
      "content": "<|image_pad|>",
      "single_word": false,
      "lstrip": false,
      "rstrip": false,
      "normalized": false,
      "special": true
    },
    {
      "id": 6,
      "content": "<tool_call>",
      "single_word": false,
      "lstrip": false,
      "rstrip": false,
      "normalized": false,
      "special": true
    },
    {
      "id": 7,
      "content": "</tool_call>",
      "single_word": false,
      "lstrip": false,
      "rstrip": false,
      "normalized": false,
      "special": true
    },
    {
      "id": 8,
      "content": "<tool_response>",
      "single_word": false,
      "lstrip": false,
      "rstrip": false,
      "normalized": false,
      "special": true
    },
    {
      "id": 9,
      "content": "</tool_response>",
      "single_word": false,
      "lstrip": false,
      "rstrip": false,
      "normalized": false,
      "special": true
    },
    {
      "id": 10,
      "content": "<tools>",
      "single_word": false,
      "lstrip": false,
      "rstrip": false,
      "normalized": false,
      "special": true
    },
    {
      "id": 11,
      "content": "</tools>",
      "single_word": false,
      "lstrip": false,
      "rstrip": false,
      "normalized": false,
      "special": true
    }
  ],
  "normalizer": null,
  "pre_tokenizer": {
    "type": "ByteLevel",
    "add_prefix_space": false,
    "trim_offsets": true,
    "use_regex": true
  },
  "post_processor": {
    "type": "ByteLevel",
    "add_prefix_space": true,
    "trim_offsets": false,
    "use_regex": true
  },
  "decoder": {
    "type": "ByteLevel",
    "add_prefix_space": true,
    "trim_offsets": true,
    "use_regex": true
  },
  "model": {
    "type": "BPE",
    "dropout": null,
    "unk_token": null,
    "continuing_subword_prefix": null,
    "end_of_word_suffix": null,
    "fuse_unk": false,
    "byte_fallback": false,
    "vocab": {
      "<|endoftext|>": 0,
      "<|im_start|>": 1,
      "<|im_end|>": 2,
      "<think>": 3,
      "</think>": 4,
      "<|image_pad|>": 5,
      "<tool_call>": 6,
      "</tool_call>": 7,
      "<tool_response>": 8,
      "</tool_response>": 9,
      "<tools>": 10,
      "</tools>": 11,
      "!": 12,
      "\"": 13,
      "#": 14,
      "$": 15,
      "%": 16,
      "&": 17,
      "'": 18,
      "(": 19,
      ")": 20,
      "*": 21,
      "+": 22,
      ",": 23,
      "-": 24,
      ".": 25,
      "/": 26,
      "0": 27,
      "1": 28,
      "2": 29,
      "3": 30,
      "4": 31,
      "5": 32,
      "6": 33,
      "7": 34,
      "8": 35,
      "9": 36,
      ":": 37,
      ";": 38,
      "<": 39,
      "=": 40,
      ">": 41,
      "?": 42,
      "@": 43,
      "A": 44,
      "B": 45,
      "C": 46,
      "D": 47,
      "E": 48,
      "F": 49,
      "G": 50,
      "H": 51,
      "I": 52,
      "J": 53,
      "K": 54,
      "L": 55,
      "M": 56,
      "N": 57,
      "O": 58,
      "P": 59,
      "Q": 60,
      "R": 61,
      "S": 62,
      "T": 63,
      "U": 64,
      "V": 65,
      "W": 66,
      "X": 67,
      "Y": 68,
      "Z": 69,
      "[": 70,
      "\\": 71,
      "]": 72,
      "^": 73,
      "_": 74,
      "`": 75,
      "a": 76,
      "b": 77,
      "c": 78,
      "d": 79,
      "e": 80,
      "f": 81,
      "g": 82,
      "h": 83,
      "i": 84,
      "j": 85,
      "k": 86,
      "l": 87,
      "m": 88,
      "n": 89,
      "o": 90,
      "p": 91,
      "q": 92,
      "r": 93,
      "s": 94,
      "t": 95,
      "u": 96,
      "v": 97,
      "w": 98,
      "x": 99,
      "y": 100,
      "z": 101,
      "{": 102,
      "|": 103,
      "}": 104,
      "~": 105,
      "¡": 106,
      "¢": 107,
      "£": 108,
      "¤": 109,
      "¥": 110,
      "¦": 111,
      "§": 112,
      "¨": 113,
      "©": 114,
      "ª": 115,
      "«": 116,
      "¬": 117,
      "®": 118,
      "¯": 119,
      "°": 120,
      "±": 121,
      "²": 122,
      "³": 123,
      "´": 124,
      "µ": 125,
      "¶": 126,
      "·": 127,
      "¸": 128,
      "¹": 129,
      "º": 130,
      "»": 131,
      "¼": 132,
      "½": 133,
      "¾": 134,
      "¿": 135,
      "À": 136,
      "Á": 137,
      "Â": 138,
      "Ã": 139,
      "Ä": 140,
      "Å": 141,
      "Æ": 142,
      "Ç": 143,
      "È": 144,
      "É": 145,
      "Ê": 146,
      "Ë": 147,
      "Ì": 148,
      "Í": 149,
      "Î": 150,
      "Ï": 151,
      "Ð": 152,
      "Ñ": 153,
      "Ò": 154,
      "Ó": 155,
      "Ô": 156,
      "Õ": 157,
      "Ö": 158,
      "×": 159,
      "Ø": 160,
      "Ù": 161,
      "Ú": 162,
      "Û": 163,
      "Ü": 164,
      "Ý": 165,
      "Þ": 166,
      "ß": 167,
      "à": 168,
      "á": 169,
      "â": 170,
      "ã": 171,
      "ä": 172,
      "å": 173,
      "æ": 174,
      "ç": 175,
      "è": 176,
      "é": 177,
      "ê": 178,
      "ë": 179,
      "ì": 180,
      "í": 181,
      "î": 182,
      "ï": 183,
      "ð": 184,
      "ñ": 185,
      "ò": 186,
      "ó": 187,
      "ô": 188,
      "õ": 189,
      "ö": 190,
      "÷": 191,
      "ø": 192,
      "ù": 193,
      "ú": 194,
      "û": 195,
      "ü": 196,
      "ý": 197,
      "þ": 198,
      "ÿ": 199,
      "Ā": 200,
      "ā": 201,
      "Ă": 202,
      "ă": 203,
      "Ą": 204,
      "ą": 205,
      "Ć": 206,
      "ć": 207,
      "Ĉ": 208,
      "ĉ": 209,
      "Ċ": 210,
      "ċ": 211,
      "Č": 212,
      "č": 213,
      "Ď": 214,
      "ď": 215,
      "Đ": 216,
      "đ": 217,
      "Ē": 218,
      "ē": 219,
      "Ĕ": 220,
      "ĕ": 221,
      "Ė": 222,
      "ė": 223,
      "Ę": 224,
      "ę": 225,
      "Ě": 226,
      "ě": 227,
      "Ĝ": 228,
      "ĝ": 229,
      "Ğ": 230,
      "ğ": 231,
      "Ġ": 232,
      "ġ": 233,
      "Ģ": 234,
      "ģ": 235,
      "Ĥ": 236,
      "ĥ": 237,
      "Ħ": 238,
      "ħ": 239,
      "Ĩ": 240,
      "ĩ": 241,
      "Ī": 242,
      "ī": 243,
      "Ĭ": 244,
      "ĭ": 245,
      "Į": 246,
      "į": 247,
      "İ": 248,
      "ı": 249,
      "Ĳ": 250,
      "ĳ": 251,
      "Ĵ": 252,
      "ĵ": 253,
      "Ķ": 254,
      "ķ": 255,
      "ĸ": 256,
      "Ĺ": 257,
      "ĺ": 258,
      "Ļ": 259,
      "ļ": 260,
      "Ľ": 261,
      "ľ": 262,
      "Ŀ": 263,
      "ŀ": 264,
      "Ł": 265,
      "ł": 266,
      "Ń": 267,
      "ä¸": 268,
      "ï¼": 269,
      "|>": 270,
      "<|": 271,
      "ãĢ": 272,
      "çļ": 273,
      "çļĦ": 274,
      "ï¼Į": 275,
      "en": 276,
      "end": 277,
      "ãĢĤ": 278,
      "äº": 279,
      "te": 280,
      "xt": 281,
      "of": 282,
      "text": 283,
      "|><|": 284,
      "endof": 285,
      "endoftext": 286,
      "ä»": 287,
      "åı": 288,
      "im": 289,
      "æľ": 290,
      "æĪ": 291,
      "è¯": 292,
      "è¿": 293,
      "åħ": 294,
      "æĸ": 295,
      "å¤": 296,
      "ä¸Ģ": 297,
      "ä½": 298,
      "æĺ": 299,
      "å®": 300,
      "çĶ": 301,
      "åĪ": 302,
      "åľ": 303,
      "åĲ": 304,
      "ar": 305,
      "st": 306,
      "art": 307,
      "start": 308,
      "ç»": 309,
      "åĴ": 310,
      "ä¹": 311,
      "åĬ": 312,
      "åĴĮ": 313,
      "åŃ": 314,
      "æĺ¯": 315,
      "å°": 316,
      "ä¸ª": 317,
      "ãĢĤ<|": 318,
      "æĪĳ": 319,
      "Ġ<|": 320,
      "ãĢģ": 321,
      "ä»¥": 322,
      "è®": 323,
      "æĸĩ": 324,
      "åľ¨": 325,
      "ï¼ļ": 326,
      "äºº": 327,
      "æľī": 328,
      "æĹ": 329,
      "ĥ½": 330,
      "åĽ": 331,
      "ä¸Ń": 332,
      "è¿Ļ": 333,
      "å¸": 334,
      "åĩ": 335,
      "äºĨ": 336,
      "éĩ": 337,
      "åº": 338,
      "æĿ": 339,
      "åı¯": 340,
      "å¹": 341,
      "è¡": 342,
      "åĨ": 343,
      "ä¼": 344,
      "é¢": 345,
      "éĢ": 346,
      "èĥ½": 347,
      "è¦": 348,
      "å·": 349,
      "çļĦæ": 350,
      "è¦ģ": 351,
      "å¥": 352,
      "å¾": 353,
      "åĮ": 354,
      "ä¸º": 355,
      "éĹ": 356,
      "æı": 357,
      "çİ": 358,
      "åį": 359,
      "çī": 360,
      "å½": 361,
      "ç§": 362,
      "å¯": 363,
      "è§": 364,
      "ä¸į": 365,
      "çĶŁ": 366,
      "æī": 367,
      "çŃ": 368,
      "å¼": 369,
      "æł": 370,
      "âĢ": 371,
      "ä¸ĭ": 372,
      "æĢ": 373,
      "çĶ¨": 374,
      "æŀ": 375,
      "éĿ": 376,
      "ä¿": 377,
      "æĬ": 378,
      "æŃ": 379,
      "åı¯ä»¥": 380,
      "æķ": 381,
      "æıĲ": 382,
      "ä»¬": 383,
      "ä¸Ģä¸ª": 384,
      "èĢ": 385,
      "åİ": 386,
      "åŃĲ": 387,
      "æĪĲ": 388,
      "ç«": 389,
      "æ³": 390,
      "æ°": 391,
      "çĽ": 392,
      "åĩº": 393,
      "æĻ": 394,
      "æĽ": 395,
      "åĵ": 396,
      "æĿ¥": 397,
      "æĥ": 398,
      "æĦ": 399,
      "¦Ĥ": 400,
      "èĩ": 401,
      "åĳ": 402,
      "æľ¬": 403,
      "è¡Į": 404,
      "çĲ": 405,
      "æĭ": 406,
      "ä½ł": 407,
      "é¢ĺ": 408,
      "åı¥": 409,
      "ä¾": 410,
      "ä»ĸ": 411,
      "ï¼Ł": 412,
      "å¿": 413,
      "æĶ": 414,
      "åĪ°": 415,
      "ä¸Ĭ": 416,
      "åŃ¦": 417,
      "å¥½": 418,
      "å¤©": 419,
      "æİ": 420,
      "å¦Ĥ": 421,
      "äºİ": 422,
      "æĹ¶": 423,
      "æµ": 424,
      "æĽ´": 425,
      "æį": 426,
      "ç»Ļ": 427,
      "åľ°": 428,
      "çº": 429,
      "åħ³": 430,
      "è¾": 431,
      "ç®": 432,
      "è´": 433,
      "å±": 434,
      "å¤§": 435,
      "ç«ł": 436,
      "èµ": 437,
      "çŃī": 438,
      "å¤ļ": 439,
      "é£": 440,
      "æĸĩç«ł": 441,
      "å¯¹": 442,
      "æ¯": 443,
      "äºĽ": 444,
      "å·¥": 445,
      "æĤ": 446,
      "å°ı": 447,
      "æĸ¹": 448,
      "å®ļ": 449,
      "æ¬": 450,
      "ä¼ļ": 451,
      "èĩª": 452,
      "åĬ¨": 453,
      "åħ¶": 454,
      "æ´": 455,
      "æľĢ": 456,
      "ä½ľ": 457,
      "åıĳ": 458,
      "æ¸": 459,
      "è¯·": 460,
      "æĸ°": 461,
      "çī©": 462,
      "éĿ¢": 463,
      "åĪĨ": 464,
      "ç±": 465,
      "éĹ®": 466,
      "æĮ": 467,
      "å¹¶": 468,
      "å°Ĩ": 469,
      "æŀľ": 470,
      "éĶ": 471,
      "éľ": 472,
      "æį®": 473,
      "è¯Ń": 474,
      "çĤ": 475,
      "æ³ķ": 476,
      "çľ": 477,
      "åģ": 478,
      "åŁ": 479,
      "æ²": 480,
      "éĻ": 481,
      "æĸĩæľ¬": 482,
      "è¿Ľ": 483,
      "åĬł": 484,
      "çİ°": 485,
      "çĦ": 486,
      "åı¥åŃĲ": 487,
      "âĢĿ": 488,
      "ä½ĵ": 489,
      "æĤ¨": 490,
      "ä½¿": 491,
      "éĩį": 492,
      "ä¿Ŀ": 493,
      "å½±": 494,
      "å®ĥ": 495,
      "æ±": 496,
      "èī": 497,
      "æĺİ": 498,
      "çĶµ": 499,
      "åıĸ": 500,
      "è½": 501,
      "ä¸»": 502,
      "ç±»": 503,
      "éģ": 504,
      "éĺ": 505,
      "ä¹Ī": 506,
      "âĢľ": 507,
      "è¯į": 508,
      "è¿ĩ": 509,
      "å®¶": 510,
      "è¶": 511,
      "é«": 512,
      "çŁ": 513,
      "åºĶ": 514,
      "æĪĸ": 515,
      "åĸ": 516,
      "éľĢ": 517,
      "æĪĳä»¬": 518,
      "å¸¸": 519,
      "é«ĺ": 520,
      "ç¾": 521,
      "åĬĽ": 522,
      "æĻº": 523,
      "çĦ¶": 524,
      "å¾Ī": 525,
      "çĲĨ": 526,
      "åĲĮ": 527,
      "æ°Ķ": 528,
      "æľº": 529,
      "ç§į": 530,
      "åĽ½": 531,
      "æģ": 532,
      "æĻºèĥ½": 533,
      "æĦŁ": 534,
      "åĮĸ": 535,
      "åī": 536,
      "åĵģ": 537,
      "æĢ§": 538,
      "åĨĻ": 539,
      "çĤ¹": 540,
      "ä»¥ä¸ĭ": 541,
      "è°": 542,
      "ç¯": 543,
      "åĽł": 544,
      "èĬ": 545,
      "éĹ®é¢ĺ": 546,
      "åĲį": 547,
      "å¾Ĺ": 548,
      "ä¹Ł": 549,
      "æķ°": 550,
      "ç³": 551,
      "æĥħ": 552,
      "ç©": 553,
      "éľĢè¦ģ": 554,
      "ä¾Ľ": 555,
      "æĬĢ": 556,
      "ä»İ": 557,
      "ç¾İ": 558,
      "ä¹ĭ": 559,
      "è§£": 560,
      "ç¯ĩ": 561,
      "åħ¬": 562,
      "å¢": 563,
      "åº¦": 564,
      "æł¹": 565,
      "å¹´": 566,
      "å»": 567,
      "åİ»": 568,
      "æıĲä¾Ľ": 569,
      "éĢļ": 570,
      "æ¡": 571,
      "ç»ı": 572,
      "ä¿¡": 573,
      "çĸ": 574,
      "çĿ": 575,
      "æŁ": 576,
      "éĤ": 577,
      "èī²": 578,
      "çİ¯": 579,
      "éĹ´": 580,
      "èĤ": 581,
      "å®ŀ": 582,
      "æĦı": 583,
      "è¡¨": 584,
      "æł¹æį®": 585,
      "ä¹ł": 586,
      "ç¤": 587,
      "è¿Ļä¸ª": 588,
      "äººå·¥": 589,
      "ä¸ĢäºĽ": 590,
      "å¿ĥ": 591,
      "ä½Ĩ": 592,
      "æīĢ": 593,
      "åĢ": 594,
      "æĥ³": 595,
      "äººå·¥æĻºèĥ½": 596,
      "å»º": 597,
      "è¿Ľè¡Į": 598,
      "ç¨": 599,
      "ä»Ģ": 600,
      "çĽ¸": 601,
      "åĮħ": 602,
      "æľ¯": 603,
      "éĩĮ": 604,
      "èĢħ": 605,
      "æ®": 606,
      "é¦": 607,
      "è®¡": 608,
      "åĲĪ": 609,
      "ç¼": 610,
      "åĲİ": 611,
      "èĢĮ": 612,
      "ç½": 613,
      "äºĭ": 614,
      "çĲĥ": 615,
      "åŀ": 616,
      "ä»Ģä¹Ī": 617,
      "å½ĵ": 618,
      "è¿°": 619,
      "åĸľ": 620,
      "èĲ": 621,
      "æģ¯": 622,
      "çĶŁæĪĲ": 623,
      "è¯¥": 624,
      "éĽ": 625,
      "æŃ£": 626,
      "éĩı": 627,
      "éĿŀ": 628,
      "çľĭ": 629,
      "ç¬": 630,
      "è¿ĺ": 631,
      "çķ": 632,
      "ä¸ļ": 633,
      "éķ": 634,
      "æ¬¢": 635,
      "åħ¥": 636,
      "éĥ½": 637,
      "é¡": 638,
      "é£Ł": 639,
      "å¸Ĥ": 640,
      "æĹ¥": 641,
      "éĥ": 642,
      "ç¡": 643,
      "èģ": 644,
      "ä¸İ": 645,
      "æ¯Ķ": 646,
      "åħ¨": 647,
      "æŃ¤": 648,
      "èĭ": 649,
      "èį": 650,
      "æ´»": 651,
      "å¼ı": 652,
      "è¯Ŀ": 653,
      "æ°´": 654,
      "è·": 655,
      "æ®µ": 656,
      "æ·": 657,
      "çĶµå½±": 658,
      "ç®Ģ": 659,
      "ç´": 660,
      "å¸®": 661,
      "æ¡Ī": 662,
      "å±ķ": 663,
      "æıĲåıĸ": 664,
      "å¤ĸ": 665,
      "å¼Ģ": 666,
      "ç»Ļå®ļ": 667,
      "çĥ": 668,
      "çĭ": 669,
      "æĹł": 670,
      "åħ·": 671,
      "åŃ¦ä¹ł": 672,
      "éļ": 673,
      "æĺ¯ä¸Ģ": 674,
      "åıĺ": 675,
      "è¯´": 676,
      "çī¹": 677,
      "å¥½çļĦ": 678,
      "çĿĢ": 679,
      "éģĵ": 680,
      "éĤ£": 681,
      "ä½¿çĶ¨": 682,
      "åīį": 683,
      "éķ¿": 684,
      "é£İ": 685,
      "éĿŀå¸¸": 686,
      "è¢": 687,
      "è®©": 688,
      "åįķ": 689,
      "æĭ¬": 690,
      "èµ·": 691,
      "åĿ": 692,
      "ä¿¡æģ¯": 693,
      "åķ": 694,
      "ç»ĵ": 695,
      "çĪ": 696,
      "åĨħ": 697,
      "çŃĶ": 698,
      "ç¨ĭ": 699,
      "åŃĹ": 700,
      "è¨": 701,
      "éĥ¨": 702,
      "åĸľæ¬¢": 703,
      "è®®": 704,
      "åĽŀ": 705,
      "æĶ¹": 706,
      "ç¯ĩæĸĩç«ł": 707,
      "å°ĳ": 708,
      "åĬ©": 709,
      "ä¸ŃçļĦ": 710,
      "èº": 711,
      "ç§ĳ": 712,
      "ç¡®": 713,
      "åŀĭ": 714,
      "æĳ": 715,
      "ç³»": 716,
      "åıĬ": 717,
      "å¤Ħ": 718,
      "éĢĤ": 719,
      "çĻ": 720,
      "ä½ķ": 721,
      "åģ¥": 722,
      "çĽ®": 723,
      "æĮģ": 724,
      "èº«": 725,
      "åĪ¶": 726,
      "éĢī": 727,
      "çł": 728,
      "è¨Ģ": 729,
      "èĻ": 730,
      "ä¸¤": 731,
      "éŁ": 732,
      "é¥": 733,
      "é¢Ĩ": 734,
      "æĬĢæľ¯": 735,
      "æłĩ": 736,
      "äº§": 737,
      "æİ¨": 738,
      "ä»£": 739,
      "ç®Ĺ": 740,
      "åĻ": 741,
      "éħ": 742,
      "åĬ¡": 743,
      "åĮ»": 744,
      "åĪ«": 745,
      "ãĢĭ": 746,
      "ãĢĬ": 747,
      "åľº": 748,
      "ä¸ī": 749,
      "æ»": 750,
      "å¢ĥ": 751,
      "æľª": 752,
      "å¦Ĥæŀľ": 753,
      "æµ·": 754,
      "æ²¡": 755,
      "åĻ¨": 756,
      "çģ": 757,
      "æīĭ": 758,
      "èĪ": 759,
      "çĹ": 760,
      "å®¹": 761,
      "åºĶçĶ¨": 762,
      "å§": 763,
      "è¿Ļç¯ĩæĸĩç«ł": 764,
      "æ¶": 765,
      "åıĹ": 766,
      "åĮħæĭ¬": 767,
      "æ¸¸": 768,
      "éĶĻ": 769,
      "çŁ¥": 770,
      "æ¯ı": 771,
      "ç¥": 772,
      "å£": 773,
      "äº¤": 774,
      "ä»»": 775,
      "åĪĽ": 776,
      "è¢«": 777,
      "åŁŁ": 778,
      "ä»¶": 779,
      "åĪ©": 780,
      "è´¨": 781,
      "æĢ»": 782,
      "ä¹Ĳ": 783,
      "æ±Ĥ": 784,
      "ä½į": 785,
      "éĶ®": 786,
      "ä¹ī": 787,
      "é©": 788,
      "åıª": 789,
      "åĲĹ": 790,
      "åıĳå±ķ": 791,
      "é»": 792,
      "å·±": 793,
      "åĩı": 794,
      "åı¸": 795,
      "æ¨": 796,
      "åı¯èĥ½": 797,
      "è®º": 798,
      "å»ºè®®": 799,
      "åİŁ": 800,
      "åº·": 801,
      "è§Ĥ": 802,
      "ä»ĸä»¬": 803,
      "èĩªå·±": 804,
      "åħ³éĶ®": 805,
      "æº": 806,
      "æĶ¾": 807,
      "æ¼": 808,
      "ä»Ĭ": 809,
      "éĩįè¦ģ": 810,
      "èĬĤ": 811,
      "æµģ": 812,
      "å¹³": 813,
      "æ²¡æľī": 814,
      "ıè¿°": 815,
      "åħ³äºİ": 816,
      "ä¾ĭ": 817,
      "åĳĬ": 818,
      "äººç±»": 819,
      "è®¾": 820,
      "æĺŁ": 821,
      "åĵį": 822,
      "å¤ª": 823,
      "å°±": 824,
      "åģ¥åº·": 825,
      "æĸŃ": 826,
      "é¢ĨåŁŁ": 827,
      "åĨ³": 828,
      "è¿ĳ": 829,
      "çİ¯å¢ĥ": 830,
      "ä¸»è¦ģ": 831,
      "è¯Ĺ": 832,
      "æľŁ": 833,
      "åŁİ": 834,
      "è½¦": 835,
      "è¯ķ": 836,
      "è¯Ĩ": 837,
      "ä¹¦": 838,
      "æĽ´åĬł": 839,
      "è£": 840,
      "çĸĹ": 841,
      "ä¸ĸ": 842,
      "éª": 843,
      "èİ": 844,
      "çĮ": 845,
      "èĦ": 846,
      "éŁ³": 847,
      "ĺè¦ģ": 848,
      "åģļ": 849,
      "åħ¬åı¸": 850,
      "èĥ": 851,
      "çŁŃ": 852,
      "è¿ĻäºĽ": 853,
      "ç¼ĸ": 854,
      "çĪ±": 855,
      "æĢĿ": 856,
      "ç²": 857,
      "æĹ¶éĹ´": 858,
      "ç©º": 859,
      "éĢļè¿ĩ": 860,
      "æĹħ": 861,
      "è¾¾": 862,
      "èı": 863,
      "æĻ¯": 864,
      "å·²": 865,
      "å¸®åĬ©": 866,
      "é¤": 867,
      "æī¾": 868,
      "æŃ¥": 869,
      "ç»Ł": 870,
      "å½±åĵį": 871,
      "æł¼": 872,
      "æııè¿°": 873,
      "å®ī": 874,
      "å¤©æ°Ķ": 875,
      "åĽłä¸º": 876,
      "çĶ±": 877,
      "ç¤¾": 878,
      "é¤Ĳ": 879,
      "æ¨¡": 880,
      "èĲ½": 881,
      "ãĢĤâĢĿ": 882,
      "èĬ±": 883,
      "æ·±": 884,
      "è¯Ńè¨Ģ": 885,
      "é¢Ħ": 886,
      "éĴ": 887,
      "å¥¹": 888,
      "æľį": 889,
      "å¼º": 890,
      "çĶŁæ´»": 891,
      "è±": 892,
      "æĸĻ": 893,
      "è¿Ĳ": 894,
      "åĵª": 895,
      "å¸¦": 896,
      "æŀģ": 897,
      "å½¢": 898,
      "æķĪ": 899,
      "åı£": 900,
      "èĩªçĦ¶": 901,
      "ï¼ģ": 902,
      "æł·": 903,
      "æľªæĿ¥": 904,
      "æĬ¤": 905,
      "å°ıæĺİ": 906,
      "ä¸Ģä¸ĭ": 907,
      "åħī": 908,
      "ç½ĳ": 909,
      "é¦ĸ": 910,
      "æĮĩ": 911,
      "ç¿": 912,
      "çķĮ": 913,
      "æ¸ħ": 914,
      "æºĲ": 915,
      "åĪĹ": 916,
      "å±±": 917,
      "åİĨ": 918,
      "å·¥ä½ľ": 919,
      "éĵ": 920,
      "è¾ĵ": 921,
      "æķ°æį®": 922,
      "ç»ĻæĪĳ": 923,
      "æľĪ": 924,
      "çº¢": 925,
      "åķĨ": 926,
      "å¤Ł": 927,
      "åıĭ": 928,
      "æ³¨": 929,
      "ä¸įåĲĮ": 930,
      "åĩł": 931,
      "é¸": 932,
      "æĭ©": 933,
      "æļ": 934,
      "ï¼Ľ": 935,
      "ç»Ļå®ļçļĦ": 936,
      "ç»Ħ": 937,
      "å¦Ĥä½ķ": 938,
      "çİ¯ä¿Ŀ": 939,
      "æ¬¡": 940,
      "éĢīæĭ©": 941,
      "ç¦": 942,
      "åĳĺ": 943,
      "çº¦": 944,
      "æ£": 945,
      "ç®¡": 946,
      "éĩĳ": 947,
      "ä¸ŃæıĲåıĸ": 948,
      "åĳ³": 949,
      "æľºåĻ¨": 950,
      "çĬ": 951,
      "éĺ³": 952,
      "æĪ·": 953,
      "æĳĺè¦ģ": 954,
      "æıĲé«ĺ": 955,
      "éĢł": 956,
      "åĮº": 957,
      "çĹħ": 958,
      "å¿«": 959,
      "åĲ«": 960,
      "å¯¼": 961,
      "èĢĥ": 962,
      "å®ĥä»¬": 963,
      "é¡¹": 964,
      "æ¸©": 965,
      "çļĦæķ": 966,
      "åĲĦ": 967,
      "åĲĥ": 968,
      "æĸ¹æ³ķ": 969,
      "ä¼ł": 970,
      "ä¸»é¢ĺ": 971,
      "çłĶ": 972,
      "å¹¿": 973,
      "æĸ¹å¼ı": 974,
      "åı¤": 975,
      "çĭĹ": 976,
      "åĲĳ": 977,
      "è®¡ç®Ĺ": 978,
      "æĺ¯ä¸Ģä¸ª": 979,
      "ç¤º": 980,
      "è¯»": 981,
      "å°½": 982,
      "æĬ¥": 983,
      "ä¸ŃåĽ½": 984,
      "åĲĮæĹ¶": 985,
      "åı¥è¯Ŀ": 986,
      "å®Į": 987,
      "ä¼ĺ": 988,
      "ä»¥åıĬ": 989,
      "ä»·": 990,
      "è®¤": 991,
      "ç»Ń": 992,
      "èĮ": 993,
      "åįķè¯į": 994,
      "åĪ°äºĨ": 995,
      "åĩĨ": 996,
      "åħ±": 997,
      "åĽŀçŃĶ": 998,
      "ä¸¤ä¸ª": 999,
      "ç¬¬": 1000,
      "è°ĥ": 1001,
      "æĸ¹éĿ¢": 1002,
      "ä¸Ķ": 1003,
      "åºĶè¯¥": 1004,
      "èıľ": 1005,
      "åŁİå¸Ĥ": 1006,
      "ä¸ĸçķĮ": 1007,
      "åŁº": 1008,
      "è§Ĩ": 1009,
      "è¥": 1010,
      "Â·": 1011,
      "åħĭ": 1012,
      "æĪĺ": 1013,
      "è§ī": 1014,
      "å§ĭ": 1015,
      "åĨħå®¹": 1016,
      "å¢ŀ": 1017,
      "è¯ī": 1018,
      "èįĲ": 1019,
      "åı²": 1020,
      "åĩıå°ĳ": 1021,
      "è¯Ħ": 1022,
      "ä¹°": 1023,
      "è¥¿": 1024,
      "ç©¶": 1025,
      "è½»": 1026,
      "æĺĵ": 1027,
      "è¯¯": 1028,
      "äººä»¬": 1029,
      "ä¿ĿæĬ¤": 1030,
      "èĥ½å¤Ł": 1031,
      "åĢĻ": 1032,
      "è¶£": 1033,
      "ä»Ĭå¤©": 1034,
      "è®¸": 1035,
      "åŃĺ": 1036,
      "å¼ķ": 1037,
      "ä¾ĭå¦Ĥ": 1038,
      "åĮ»çĸĹ": 1039,
      "è¶Ĭ": 1040,
      "æŁ¥": 1041,
      "çİ°åľ¨": 1042,
      "æİ¨èįĲ": 1043,
      "åĲ¦": 1044,
      "ä½¿åħ¶": 1045,
      "åħ¶ä»ĸ": 1046,
      "æŃĮ": 1047,
      "åĮĹ": 1048,
      "å¤į": 1049,
      "åĳĬè¯ī": 1050,
      "æĲ": 1051,
      "æİ¥": 1052,
      "èµĦ": 1053,
      "æĪĸèĢħ": 1054,
      "äºĨä¸Ģ": 1055,
      "åĬŁ": 1056,
      "å®¢": 1057,
      "ç«ĭ": 1058,
      "åĳ¨": 1059,
      "ç»Ļåĩº": 1060,
      "çłĶç©¶": 1061,
      "æµĭ": 1062,
      "çĻ½": 1063,
      "é¥®": 1064,
      "è¶³": 1065,
      "åħĥ": 1066,
      "åĪĨç±»": 1067,
      "å¤ĩ": 1068,
      "ä»¥ä¸ĭåı¥åŃĲ": 1069,
      "å²": 1070,
      "åĥ": 1071,
      "æĸ¯": 1072,
      "åĽŃ": 1073,
      "çĥŃ": 1074,
      "å¤´": 1075,
      "åĶ": 1076,
      "èĩ´": 1077,
      "çĶ·": 1078,
      "20": 1079,
      "æķĻ": 1080,
      "ç³ĸ": 1081,
      "çŃĶæ¡Ī": 1082,
      "åĽłæŃ¤": 1083,
      "è·¯": 1084,
      "èģĶ": 1085,
      "èĳ": 1086,
      "çħ": 1087,
      "çľŁ": 1088,
      "æĢģ": 1089,
      "å¤ĦçĲĨ": 1090,
      "åįģ": 1091,
      "éĶĻè¯¯": 1092,
      "éĹ»": 1093,
      "ç´ł": 1094,
      "æŀĲ": 1095,
      "æİĴ": 1096,
      "ï¼ļâĢľ": 1097,
      "æİ¢": 1098,
      "äºĮ": 1099,
      "æ»¡": 1100,
      "çİĩ": 1101,
      "æľĽ": 1102,
      "¹æŀľ": 1103,
      "ç¥ŀ": 1104,
      "æłĩé¢ĺ": 1105,
      "åĨį": 1106,
      "æľĭ": 1107,
      "éĹ¨": 1108,
      "èĭ¹æŀľ": 1109,
      "åħ¨çĲĥ": 1110,
      "ä»½": 1111,
      "ç»Ĩ": 1112,
      "æĸ½": 1113,
      "å¥³": 1114,
      "åıĤ": 1115,
      "æ¬¾": 1116,
      "å¾Īå¤ļ": 1117,
      "æĶ¿": 1118,
      "ä½Ĩæĺ¯": 1119,
      "åı·": 1120,
      "çº¿": 1121,
      "åĪĨæŀĲ": 1122,
      "æĺ¯ä»Ģä¹Ī": 1123,
      "æĶ¯": 1124,
      "çı": 1125,
      "ä¾¿": 1126,
      "ä¸ªäºº": 1127,
      "ä¿®": 1128,
      "è±¡": 1129,
      "ä¸ĭéĿ¢": 1130,
      "ï¼ī": 1131,
      "è°¢": 1132,
      "å·²ç»ı": 1133,
      "ç§°": 1134,
      "çĽ¸åħ³": 1135,
      "çīĩ": 1136,
      "æľĭåıĭ": 1137,
      "ç§ĳæĬĢ": 1138,
      "ç²¾": 1139,
      "éªĮ": 1140,
      "æ¢": 1141,
      "èĻĳ": 1142,
      "åĽ¾": 1143,
      "æīĵ": 1144,
      "å°Ŀ": 1145,
      "åĨµ": 1146,
      "æ´ģ": 1147,
      "åĥı": 1148,
      "æĬĬ": 1149,
      "æĹłæ³ķ": 1150,
      "çĮ«": 1151,
      "éĩĩ": 1152,
      "ä»ĭ": 1153,
      "è§ģ": 1154,
      "èİ·": 1155,
      "åŃ£": 1156,
      "ç§¯": 1157,
      "å¡": 1158,
      "åħĪ": 1159,
      "è¿ĲåĬ¨": 1160,
      "æĽ´å¤ļ": 1161,
      "åĪĴ": 1162,
      "çĶŁæĪĲä¸Ģä¸ª": 1163,
      "çļĦåı¥åŃĲ": 1164,
      "ãĢĤ\\": 1165,
      "éļ¾": 1166,
      "ç´¢": 1167,
      "ä¹ĭä¸Ģ": 1168,
      "éĤ£ä¹Ī": 1169,
      "æĿ¾": 1170,
      "åĲ¬": 1171,
      "æĿ¡": 1172,
      "åĳĬè¯īæĪĳ": 1173,
      "æķ´": 1174,
      "æľĢè¿ĳ": 1175,
      "çļĦæĥ": 1176,
      "åºı": 1177,
      "äº¬": 1178,
      "æĻļ": 1179,
      "åĬ¨çī©": 1180,
      "è®¸å¤ļ": 1181,
      "èĭ±": 1182,
      "ä¿ĿæĮģ": 1183,
      "å¸ĥ": 1184,
      "æ¼Ķ": 1185,
      "åħ³éĶ®è¯į": 1186,
      "10": 1187,
      "åħ·ä½ĵ": 1188,
      "äº§åĵģ": 1189,
      "æĸĩæ¡Ī": 1190,
      "åħ¶ä¸Ń": 1191,
      "è®°": 1192,
      "å¤ı": 1193,
      "èĩªå·±çļĦ": 1194,
      "ï¼Ł<|": 1195,
      "æĪĳæĥ³": 1196,
      "éĢŁ": 1197,
      "è§Ħ": 1198,
      "æ´»åĬ¨": 1199,
      "æĸ°çļĦ": 1200,
      "åıį": 1201,
      "ä½łçļĦ": 1202,
      "æĸĩåĮĸ": 1203,
      "è¾ĳ": 1204,
      "æĪĳçļĦ": 1205,
      "ħäºĭ": 1206,
      "å¦": 1207,
      "äºĶ": 1208,
      "éĻ©": 1209,
      "æĶ¶": 1210,
      "è´Ń": 1211,
      "é©¬": 1212,
      "ä¸Ģæ®µ": 1213,
      "æĢ»ç»ĵ": 1214,
      "åħ´": 1215,
      "çĭ¬": 1216,
      "ç§ĭ": 1217,
      "åİĨåı²": 1218,
      "çļĦäºº": 1219,
      "åĳ½": 1220,
      "è¾ĵåħ¥": 1221,
      "åįĹ": 1222,
      "æŁĵ": 1223,
      "éŁ³ä¹Ĳ": 1224,
      "ç¢": 1225,
      "æį¢": 1226,
      "ï¼Ī": 1227,
      "åĪĻ": 1228,
      "æīĢæľī": 1229,
      "çĽ´": 1230,
      "æĺ¯ä¸Ģç§į": 1231,
      "æ¨¡åŀĭ": 1232,
      "è®²": 1233,
      "èĢģ": 1234,
      "ä½İ": 1235,
      "éļı": 1236,
      "éĽ¨": 1237,
      "èĩ³": 1238,
      "åĢ¼": 1239,
      "ç³»ç»Ł": 1240,
      "æ¶Ī": 1241,
      "æīį": 1242,
      "è§£åĨ³": 1243,
      "æĸ°éĹ»": 1244,
      "èµĽ": 1245,
      "åĭ": 1246,
      "è½¬": 1247,
      "åıĺåĮĸ": 1248,
      "å½ĵçĦ¶": 1249,
      "ç¤¾ä¼ļ": 1250,
      "çļĦæĦ": 1251,
      "é¦Ļ": 1252,
      "è¾ĥ": 1253,
      "æħ": 1254,
      "éħį": 1255,
      "ä¸ľ": 1256,
      "ç»į": 1257,
      "è¶ħ": 1258,
      "åįİ": 1259,
      "çĬ¶": 1260,
      "ä¸½": 1261,
      "åĲ¸": 1262,
      "è®¨": 1263,
      "æľįåĬ¡": 1264,
      "æĹ©": 1265,
      "è¦ģæ±Ĥ": 1266,
      "ç¿»": 1267,
      "å£«": 1268,
      "ä»»åĬ¡": 1269,
      "æ²»": 1270,
      "å¼ł": 1271,
      "æĪĳä»¬çļĦ": 1272,
      "çŃīçŃī": 1273,
      "ç»ĥ": 1274,
      "å¤±": 1275,
      "ä»ĭç»į": 1276,
      "èº«ä½ĵ": 1277,
      "èĤ²": 1278,
      "è®¾è®¡": 1279,
      "è¡£": 1280,
      "éĩĬ": 1281,
      "åĳ¢": 1282,
      "æľºåĻ¨åŃ¦ä¹ł": 1283,
      "ç¾İåĽ½": 1284,
      "åĽĽ": 1285,
      "çļĦä¿¡æģ¯": 1286,
      "å°Ŀè¯ķ": 1287,
      "éĺŁ": 1288,
      "ç§ĳåŃ¦": 1289,
      "æŀĦ": 1290,
      "åİħ": 1291,
      "è®¡ç®Ĺæľº": 1292,
      "å¨": 1293,
      "çļĦéĹ®é¢ĺ": 1294,
      "åıĳçİ°": 1295,
      "æ¦Ĥ": 1296,
      "AI": 1297,
      "å¸¦æĿ¥": 1298,
      "äº«": 1299,
      "æ°ĳ": 1300,
      "æĹħæ¸¸": 1301,
      "é²": 1302,
      "æĪĲä¸º": 1303,
      "å®īåħ¨": 1304,
      "è®¤ä¸º": 1305,
      "èĽ": 1306,
      "è£ħ": 1307,
      "åħħ": 1308,
      "æīĢä»¥": 1309,
      "å°Ķ": 1310,
      "åį³": 1311,
      "çŁ¥éģĵ": 1312,
      "è¯ĨåĪ«": 1313,
      "çŃĸ": 1314,
      "å°ıè¯´": 1315,
      "æĿĲ": 1316,
      "åħ·æľī": 1317,
      "éĢĤåĲĪ": 1318,
      "æ¤": 1319,
      "æŃ¤å¤ĸ": 1320,
      "èĲ¥": 1321,
      "çļĦæĥħ": 1322,
      "è§Ĵ": 1323,
      "æĺ¥": 1324,
      "éĺ²": 1325,
      "å¿ħ": 1326,
      "åĬ¿": 1327,
      "æ¯Ķå¦Ĥ": 1328,
      "è¡¨è¾¾": 1329,
      "èħ": 1330,
      "åĦ": 1331,
      "ç©¿": 1332,
      "æĺ¯åĲ¦": 1333,
      "æĭī": 1334,
      "ç®Ģæ´ģ": 1335,
      "ç¼ĸè¾ĳ": 1336,
      "æ½": 1337,
      "ä½łåı¯ä»¥": 1338,
      "çª": 1339,
      "çļĦä¸Ģ": 1340,
      "æŃ£åľ¨": 1341,
      "è¾¹": 1342,
      "åįĩ": 1343,
      "çħ§": 1344,
      "æĤ¨åı¯ä»¥": 1345,
      "æļĸ": 1346,
      "çļĦå½±åĵį": 1347,
      "ãĢĤ\"": 1348,
      "åİĭ": 1349,
      "èĤī": 1350,
      "æŀĹ": 1351,
      "åľ°çĲĥ": 1352,
      "éĩįåĨĻ": 1353,
      "ç»´": 1354,
      "åħį": 1355,
      "æĥħæĦŁ": 1356,
      "éĽĨ": 1357,
      "ªæĸ½": 1358,
      "çģ«": 1359,
      "æĪ¿": 1360,
      "ä¸ĩ": 1361,
      "èĥ½åĬĽ": 1362,
      "çĲĨè§£": 1363,
      "æĺ¾": 1364,
      "çİĭ": 1365,
      "¡æŁĵ": 1366,
      "å£°": 1367,
      "è¯ĳ": 1368,
      "ä¹ĭéĹ´": 1369,
      "çļĦæĬ": 1370,
      "åı°": 1371,
      "å¼Ģå§ĭ": 1372,
      "æĸĩç«łä¸ŃæıĲåıĸ": 1373,
      "çļĦæł": 1374,
      "è®¡åĪĴ": 1375,
      "é»ĳ": 1376,
      "å·´": 1377,
      "ä¸ĵ": 1378,
      "è¿ľ": 1379,
      "çļĦä¸»è¦ģ": 1380,
      "äºĴ": 1381,
      "æ®µèĲ½": 1382,
      "ç¦»": 1383,
      "ä¼¼": 1384,
      "çļĦåºĶçĶ¨": 1385,
      "ç¿»è¯ĳ": 1386,
      "æĸĩç«łä¸Ń": 1387,
      "éĻį": 1388,
      "èµ°": 1389,
      "å®ŀä½ĵ": 1390,
      "äºĨè§£": 1391,
      "é¥®é£Ł": 1392,
      "å¤ªéĺ³": 1393,
      "èĳĹ": 1394,
      "åĸĦ": 1395,
      "å¸®æĪĳ": 1396,
      "å¸Į": 1397,
      "è´¹": 1398,
      "ä¸Ģèµ·": 1399,
      "ä»ĸçļĦ": 1400,
      "éĻ¤": 1401,
      "æĦŁåĪ°": 1402,
      "è¯Ńæ³ķ": 1403,
      "æĴ": 1404,
      "æĢİ": 1405,
      "å¯¼èĩ´": 1406,
      "åŃĺåľ¨": 1407,
      "äºĳ": 1408,
      "ç§¯æŀģ": 1409,
      "å¯»": 1410,
      "æľīåħ³": 1411,
      "åĦ¿": 1412,
      "éĶĢ": 1413,
      "çİ©": 1414,
      "é¤Ĳåİħ": 1415,
      "ç½®": 1416,
      "å·§": 1417,
      "æĪı": 1418,
      "é£ŀ": 1419,
      "èīº": 1420,
      "çĦ¶åĲİ": 1421,
      "äºļ": 1422,
      "åºĹ": 1423,
      "é»Ħ": 1424,
      "åħ»": 1425,
      "ä½ľä¸º": 1426,
      "çĳ": 1427,
      "è¯·éĹ®": 1428,
      "è§ĤçĤ¹": 1429,
      "æ±¡æŁĵ": 1430,
      "åĮĹäº¬": 1431,
      "å¤§çļĦ": 1432,
      "åĴĸ": 1433,
      "å¸Ĥåľº": 1434,
      "åł": 1435,
      "çĻ¾": 1436,
      "å¤ľ": 1437,
      "çīĽ": 1438,
      "å¾·": 1439,
      "å®ŀçİ°": 1440,
      "å¯¹äºİ": 1441,
      "åıĪ": 1442,
      "èįī": 1443,
      "æľīè¶£": 1444,
      "ä¸Ģç¯ĩ": 1445,
      "å¯Į": 1446,
      "èŀ": 1447,
      "æ³Ľ": 1448,
      "çĶ»": 1449,
      "ä»¥ä¸ĭæĸĩæľ¬": 1450,
      "éĻħ": 1451,
      "å¦Ĥæŀľä½ł": 1452,
      "çĨ": 1453,
      "æĹħè¡Į": 1454,
      "åķ¡": 1455,
      "èĩªåĬ¨": 1456,
      "æĺ¨": 1457,
      "å¸Ī": 1458,
      "èĢĥèĻĳ": 1459,
      "åĴĸåķ¡": 1460,
      "ç¬¦": 1461,
      "ç»Ī": 1462,
      "éħĴ": 1463,
      "æµİ": 1464,
      "ç«Ļ": 1465,
      "èĽĭ": 1466,
      "çļĦåľ°": 1467,
      "åĽ´": 1468,
      "æ¹": 1469,
      "è¿ĺæľī": 1470,
      "ç®Ģåįķ": 1471,
      "æī¾åĪ°": 1472,
      "å®ĮæĪĲ": 1473,
      "è¿Ļæ®µ": 1474,
      "æĽ¿": 1475,
      "æĤ¨çļĦ": 1476,
      "ä»¤": 1477,
      "çļĦæ°": 1478,
      "åĮħåĲ«": 1479,
      "åĲĦç§į": 1480,
      "æĽ´å¥½": 1481,
      "åŃ©": 1482,
      "åı¦": 1483,
      "æĪĳåı¯ä»¥": 1484,
      "ä¸¾": 1485,
      "åĪ¤": 1486,
      "åºľ": 1487,
      "è§£éĩĬ": 1488,
      "ç³ĸæŀľ": 1489,
      "åĵªäºĽ": 1490,
      "ç»¿": 1491,
      "çļĦçĶµå½±": 1492,
      "çĶ¨æĪ·": 1493,
      "åķĨåĵģ": 1494,
      "æ°ĶåĢĻ": 1495,
      "èģĬ": 1496,
      "æĿİ": 1497,
      "ä¸įæĸŃ": 1498,
      "é£Łçī©": 1499,
      "æķ£": 1500,
      "å®¤": 1501,
      "ç±³": 1502,
      "ĳæĪĺ": 1503,
      "èĥ½æºĲ": 1504,
      "æł¹æį®ç»Ļå®ļçļĦ": 1505,
      "å¯Ĩ": 1506,
      "ä¸īä¸ª": 1507,
      "çļĦæĸĩæľ¬": 1508,
      "èĵ": 1509,
      "æ³¨æĦı": 1510,
      "äº¤éĢļ": 1511,
      "ä¹Łåı¯ä»¥": 1512,
      "èĪĴ": 1513,
      "çĶ±äºİ": 1514,
      "åĩłä¸ª": 1515,
      "èŀį": 1516,
      "é¦Ĩ": 1517,
      "ç»ĩ": 1518,
      "é¾": 1519,
      "å¹¿æ³Ľ": 1520,
      "å¿µ": 1521,
      "æİªæĸ½": 1522,
      "å¹¶ä¸Ķ": 1523,
      "çļĦå¤©æ°Ķ": 1524,
      "å¾ĭ": 1525,
      "çļĦåıĳå±ķ": 1526,
      "åħ¬åĽŃ": 1527,
      "ç»ıæµİ": 1528,
      "éĻĲ": 1529,
      "èģĮ": 1530,
      "åī§": 1531,
      "æłĳ": 1532,
      "ä¸Ģç§į": 1533,
      "èī²çļĦ": 1534,
      "æİ§": 1535,
      "ä¸įèĥ½": 1536,
      "é±": 1537,
      "ĊĊ": 1538,
      "å¾®": 1539,
      "æŁĲ": 1540,
      "ç±»åŀĭ": 1541,
      "å®Ŀ": 1542,
      "å±ħ": 1543,
      "çİ°ä»£": 1544,
      "åħ³ç³»": 1545,
      "é±¼": 1546,
      "éĺħ": 1547,
      "çļĦæĢ": 1548,
      "åĩĨç¡®": 1549,
      "è¯ģ": 1550,
      "ä¸įåĲĮçļĦ": 1551,
      "æĿ¯": 1552,
      "è´Ł": 1553,
      "æ¿": 1554,
      "éĢļå¸¸": 1555,
      "çĸ¾": 1556,
      "æĭ¥": 1557,
      "åĲįç§°": 1558,
      "å¢ŀåĬł": 1559,
      "å¸ĮæľĽ": 1560,
      "æĪĲåĬŁ": 1561,
      "æĽ²": 1562,
      "çīĮ": 1563,
      "èĻ½": 1564,
      "è¿ŀ": 1565,
      "è´¨éĩı": 1566,
      "éĥ½æĺ¯": 1567,
      "æ²Ļ": 1568,
      "å¾Ģ": 1569,
      "æ©": 1570,
      "çļĦæķ°": 1571,
      "è¿ĺæĺ¯": 1572,
      "åı¶": 1573,
      "ç¬Ķ": 1574,
      "çļĦéĩįè¦ģ": 1575,
      "å³": 1576,
      "ä¼ģ": 1577,
      "è¯Ĭ": 1578,
      "å®³": 1579,
      "ä¸ºæĤ¨": 1580,
      "éĻ¢": 1581,
      "ä»»ä½ķ": 1582,
      "å¹²": 1583,
      "æĵ": 1584,
      "ç®¡çĲĨ": 1585,
      "èĩªçĦ¶è¯Ńè¨Ģ": 1586,
      "çĿ¡": 1587,
      "æ¥": 1588,
      "åģĩ": 1589,
      "é¸Ł": 1590,
      "è¿Ļåı¥è¯Ŀ": 1591,
      "çļĦæĦı": 1592,
      "å¦ĤæŀľæĤ¨": 1593,
      "åĪ©çĶ¨": 1594,
      "åħ¸": 1595,
      "èµ·æĿ¥": 1596,
      "ä»İæĸĩç«łä¸ŃæıĲåıĸ": 1597,
      "äººçļĦ": 1598,
      "æĥħåĨµ": 1599,
      "éº": 1600,
      "è¯¢": 1601,
      "èİ·å¾Ĺ": 1602,
      "ç¨ĭåºı": 1603,
      "ä¼Ĺ": 1604,
      "æĢİä¹Ī": 1605,
      "ç»ĵæŀľ": 1606,
      "æķĻèĤ²": 1607,
      "è·ĳ": 1608,
      "æĮģç»Ń": 1609,
      "æķħäºĭ": 1610,
      "å±ŀ": 1611,
      "éĩįæĸ°": 1612,
      "éĩįè¦ģçļĦ": 1613,
      "èĦĳ": 1614,
      "æĶ¿åºľ": 1615,
      "éĺħè¯»": 1616,
      "çĵ": 1617,
      "åŃ¦çĶŁ": 1618,
      "çºł": 1619,
      "éĿĻ": 1620,
      "çŁ³": 1621,
      "éĿĴ": 1622,
      "çĸ¾çĹħ": 1623,
      "æŃ£ç¡®": 1624,
      "é£İæł¼": 1625,
      "00": 1626,
      "åĨĽ": 1627,
      "è½¯": 1628,
      "å·ŀ": 1629,
      "æµª": 1630,
      "éģ¿": 1631,
      "åĩºçİ°": 1632,
      "äºĨä¸Ģä¸ª": 1633,
      "è¿Ļç§į": 1634,
      "å°½ç®¡": 1635,
      "ä½¿åħ¶æĽ´åĬł": 1636,
      "è®Ń": 1637,
      "ĥåľ": 1638,
      "éĨ": 1639,
      "å¥ĩ": 1640,
      "åŀĥåľ": 1641,
      "åŀĥåľ¾": 1642,
      "éĩĩåıĸ": 1643,
      "é¸¡": 1644,
      "åª": 1645,
      "é¼": 1646,
      "é¢ľ": 1647,
      "åĬŀ": 1648,
      "ä¼ĳ": 1649,
      "å¤ļå°ĳ": 1650,
      "çļĦæĸĩç«ł": 1651,
      "ç®Ĺæ³ķ": 1652,
      "èĻ½çĦ¶": 1653,
      "åĽ¢": 1654,
      "çļĦæĻ": 1655,
      "èĶ": 1656,
      "å¥¶": 1657,
      "çīĪ": 1658,
      "ãĢĤâĢĿ<|": 1659,
      "æĮī": 1660,
      "çº§": 1661,
      "é¢Ħæµĭ": 1662,
      "æĬ±": 1663,
      "æľīæķĪ": 1664,
      "ä»İè¿Ļç¯ĩæĸĩç«ł": 1665,
      "èĵĿ": 1666,
      "ä¸Ģä»½": 1667,
      "æĽ´å¥½åľ°": 1668,
      "å°ıçº¢": 1669,
      "åºŃ": 1670,
      "åıĳçĶŁ": 1671,
      "åĪ¶ä½ľ": 1672,
      "æľ¨": 1673,
      "äºī": 1674,
      "åĮ»çĶŁ": 1675,
      "äººå·¥æĻºèĥ½æĬĢæľ¯": 1676,
      "è¿Ļæł·": 1677,
      "åĪ¤æĸŃ": 1678,
      "è¯ĬæĸŃ": 1679,
      "ç¼ĵ": 1680,
      "ç¦ı": 1681,
      "åĳ¼": 1682,
      "å°¼": 1683,
      "ä¹īè¯į": 1684,
      "ç»Ħç»ĩ": 1685,
      "ç»ľ": 1686,
      "äº§çĶŁ": 1687,
      "å¾ĹåĪ°": 1688,
      "éĢģ": 1689,
      "æĸĩåŃĹ": 1690,
      "ä»ħ": 1691,
      "ç¾İä¸½": 1692,
      "æĺ¨å¤©": 1693,
      "æ¿Ģ": 1694,
      "æĪĳä»¬åı¯ä»¥": 1695,
      "æ¯ĶèµĽ": 1696,
      "å°ļ": 1697,
      "æĺİå¤©": 1698,
      "çĽ®æłĩ": 1699,
      "åĬª": 1700,
      "æ¸¸æĪı": 1701,
      "ç®ĢçŁŃ": 1702,
      "è´Ńä¹°": 1703,
      "ä½łèĥ½": 1704,
      "åĨ°": 1705,
      "æ¯ıä¸ª": 1706,
      "äº®": 1707,
      "ä¸Ģåı¥è¯Ŀ": 1708,
      "åĲ§": 1709,
      "èī¯": 1710,
      "ç¬ĳ": 1711,
      "éľĢæ±Ĥ": 1712,
      "åĿĩ": 1713,
      "çĸ«": 1714,
      "éģĩ": 1715,
      "èµĦæºĲ": 1716,
      "çļĦæİ": 1717,
      "åĬªåĬĽ": 1718,
      "ç½Ĺ": 1719,
      "éĥ¨åĪĨ": 1720,
      "éŃ": 1721,
      "æ°ĶåĢĻåıĺåĮĸ": 1722,
      "ç½ĳç»ľ": 1723,
      "ç¤¾äº¤": 1724,
      "éŀ": 1725,
      "è¡Įä¸º": 1726,
      "åİĭåĬĽ": 1727,
      "èŃ": 1728,
      "è¯Ħè®º": 1729,
      "æ£Ģ": 1730,
      "æĪĲè¯Ń": 1731,
      "æ´²": 1732,
      "è¿İ": 1733,
      "çĽĬ": 1734,
      "èĩªçĦ¶è¯Ńè¨Ģå¤ĦçĲĨ": 1735,
      "æ¯Ķè¾ĥ": 1736,
      "æ¦Ĥæĭ¬": 1737,
      "å½©": 1738,
      "ä¸įæĺ¯": 1739,
      "èį¯": 1740,
      "ä»į": 1741,
      "æ´ĭ": 1742,
      "é²ľ": 1743,
      "ä¸¥": 1744,
      "çģµ": 1745,
      "æīįèĥ½": 1746,
      "åį¡": 1747,
      "è¾ĵåĩº": 1748,
      "è¿ĩç¨ĭ": 1749,
      "å¾ģ": 1750,
      "ä¼ģä¸ļ": 1751,
      "æĪĳåĸľæ¬¢": 1752,
      "æ»©": 1753,
      "çłģ": 1754,
      "åı¤è¯Ĺ": 1755,
      "ä¸Ģé¦ĸ": 1756,
      "æĮĳæĪĺ": 1757,
      "çļĦæī": 1758,
      "äºĭä»¶": 1759,
      "çĶ¨äºİ": 1760,
      "å½Ĵ": 1761,
      "æĲŃ": 1762,
      "æ¯į": 1763,
      "æİ¢ç´¢": 1764,
      "å¾ħ": 1765,
      "èĪĴéĢĤ": 1766,
      "ç¡®å®ļ": 1767,
      "è¿Ļæĺ¯": 1768,
      "ä¸ĬçļĦ": 1769,
      "äº²": 1770,
      "èĮĥ": 1771,
      "ç¾İé£Ł": 1772,
      "é¢ĺçĽ®": 1773,
      "åı¯èĥ½ä¼ļ": 1774,
      "çĥ¤": 1775,
      "è®²è¿°": 1776,
      "ä½ĵéªĮ": 1777,
      "æľīä»Ģä¹Ī": 1778,
      "çļĦæĺ¯": 1779,
      "çļĦæĸ¹æ³ķ": 1780,
      "çĤ¼": 1781,
      "æĻ®": 1782,
      "éĥ¨çĶµå½±": 1783,
      "æĬķ": 1784,
      "æĩ": 1785,
      "ç¼º": 1786,
      "æ²¹": 1787,
      "ä¸´": 1788,
      "éĩİ": 1789,
      "è¡¨ç¤º": 1790,
      "åı¯ä»¥å¸®åĬ©": 1791,
      "æ°´æŀľ": 1792,
      "çŁ¥è¯Ĩ": 1793,
      "çľ¼": 1794,
      "çļĦæĬĢ": 1795,
      "ä¹Łæĺ¯": 1796,
      "åĶ®": 1797,
      "æĶ¹åĨĻ": 1798,
      "ä½ľçĶ¨": 1799,
      "æł¡": 1800,
      "å®ĥçļĦ": 1801,
      "æ¤į": 1802,
      "åıĤåĬł": 1803,
      "è®¨è®º": 1804,
      "âĢĿï¼Į": 1805,
      "åĪ»": 1806,
      "ä»·æł¼": 1807,
      "çļĦæĳ": 1808,
      "ç¼ĸç¨ĭ": 1809,
      "æľīå¾Īå¤ļ": 1810,
      "è¯ĹæŃĮ": 1811,
      "è¿½": 1812,
      "å½ĵåľ°": 1813,
      "æ±½": 1814,
      "éģ¿åħį": 1815,
      "çķĻ": 1816,
      "çł´": 1817,
      "æ²³": 1818,
      "è£¤": 1819,
      "èĥľ": 1820,
      "æ¢¦": 1821,
      "è¡¨çİ°": 1822,
      "æĭ¥æľī": 1823,
      "åĿļ": 1824,
      "æľĢåĲİ": 1825,
      "éĺ¿": 1826,
      "æĶ¹åıĺ": 1827,
      "éŀĭ": 1828,
      "äººå·¥æĻºèĥ½åľ¨": 1829,
      "åĬŁèĥ½": 1830,
      "ä¸Ńå¿ĥ": 1831,
      "æ¯ıå¤©": 1832,
      "æĬ½": 1833,
      "æ¼«": 1834,
      "åĨ¬": 1835,
      "æĸ¹æ¡Ī": 1836,
      "åħ³æ³¨": 1837,
      "æķĪçİĩ": 1838,
      "æ³¢": 1839,
      "è¿Ļæĺ¯ä¸Ģ": 1840,
      "æĿĤ": 1841,
      "çĶµåŃĲ": 1842,
      "åĪĩ": 1843,
      "çļ®": 1844,
      "æ²»çĸĹ": 1845,
      "åİ»äºĨ": 1846,
      "èľ": 1847,
      "ç¤¼": 1848,
      "è¯¦": 1849,
      "å±Ĥ": 1850,
      "çĶŁæĢģ": 1851,
      "æĹ¶åĢĻ": 1852,
      "åįĥ": 1853,
      "éĤ®": 1854,
      "æĶ¾æĿ¾": 1855,
      "ç¡®ä¿Ŀ": 1856,
      "èķ": 1857,
      "è¡ĮåĬ¨": 1858,
      "åĿĹ": 1859,
      "å¨ģ": 1860,
      "âĢĿãĢĤ": 1861,
      "èĳĹåĲį": 1862,
      "æĪĳä¼ļ": 1863,
      "åįĪ": 1864,
      "äº«åıĹ": 1865,
      "çļĦæłĩ": 1866,
      "ç¥¨": 1867,
      "ä¸ºä»Ģä¹Ī": 1868,
      "èĴ": 1869,
      "æĽ¿æį¢": 1870,
      "å°Ĩåħ¶": 1871,
      "æ½®": 1872,
      "åĬłåħ¥": 1873,
      "è®Ńç»ĥ": 1874,
      "å®¶åºŃ": 1875,
      "ä¿®æĶ¹": 1876,
      "çľł": 1877,
      "é¡»": 1878,
      "ä½³": 1879,
      "åĪĽæĦı": 1880,
      "å½ĵçĦ¶åı¯ä»¥": 1881,
      "ä¸ĬæľĢ": 1882,
      "å³°": 1883,
      "äººåĲį": 1884,
      "éĺ³åħī": 1885,
      "çļĦå»ºè®®": 1886,
      "èĶ¬": 1887,
      "åĤ": 1888,
      "åĽ°": 1889,
      "çĩ": 1890,
      "çķħ": 1891,
      "å°±æĺ¯": 1892,
      "é£Łåĵģ": 1893,
      "æĭŁ": 1894,
      "çĽ®åīį": 1895,
      "æĽ´å¤ļçļĦ": 1896,
      "åĪĽéĢł": 1897,
      "ä¼¤": 1898,
      "èīºæľ¯": 1899,
      "é£İéĻ©": 1900,
      "åİŁåĽł": 1901,
      "æŃī": 1902,
      "ä¸Ģåıª": 1903,
      "å¾Īå¥½": 1904,
      "ä¸įéĶĻ": 1905,
      "æ·»": 1906,
      "åį«": 1907,
      "è¯·ä½ł": 1908,
      "ä½ı": 1909,
      "çļĦæµ": 1910,
      "æĿ¥è¶Ĭ": 1911,
      "è¶ĭ": 1912,
      "çĹĩ": 1913,
      "ä¸ºäºĨ": 1914,
      "åĨ³å®ļ": 1915,
      "é¹": 1916,
      "çĦ¦": 1917,
      "é¢Ĺ": 1918,
      "åĵĪ": 1919,
      "è¶ĬæĿ¥è¶Ĭ": 1920,
      "æ±Ł": 1921,
      "ä»İè¿Ļç¯ĩæĸĩç«łä¸ŃæıĲåıĸ": 1922,
      "æİ§åĪ¶": 1923,
      "åº§": 1924,
      "è¡Įä¸ļ": 1925,
      "é¥Ń": 1926,
      "å®ĺ": 1927,
      "çªģ": 1928,
      "çĽĳ": 1929,
      "èĥĮ": 1930,
      "å¹»": 1931,
      "æ±½è½¦": 1932,
      "æĶ¹åĸĦ": 1933,
      "åī©": 1934,
      "æĢ§åĴĮ": 1935,
      "ç´§": 1936,
      "é¢ľèī²": 1937,
      "å¼Ĥ": 1938,
      "ï¼ģ<|": 1939,
      "ç¿»è¯ĳæĪĲ": 1940,
      "æĶ¯æĮģ": 1941,
      "æĹ¨": 1942,
      "çļĦæķħäºĭ": 1943,
      "åħ´è¶£": 1944,
      "å¥Ĺ": 1945,
      "è¡¡": 1946,
      "è¯¦ç»Ĩ": 1947,
      "çĶŁäº§": 1948,
      "çĶŁåĳ½": 1949,
      "éĩĳèŀį": 1950,
      "åĸĿ": 1951,
      "éĶ»": 1952,
      "å¤ıå¤©": 1953,
      "äºĭæĥħ": 1954,
      "ä¸°": 1955,
      "ä¼¦": 1956,
      "çķ¥": 1957,
      "éĴ±": 1958,
      "ä½¿åħ¶æĽ´": 1959,
      "éĹ²": 1960,
      "çĶŁçī©": 1961,
      "åĲįåŃĹ": 1962,
      "åĨĻä¸Ģä¸ª": 1963,
      "éĶ»çĤ¼": 1964,
      "çĪ±æĥħ": 1965,
      "èĶ¬èıľ": 1966,
      "æĳĦ": 1967,
      "çıŃ": 1968,
      "åį°": 1969,
      "æīĭæľº": 1970,
      "ä¹ĭéĹ´çļĦ": 1971,
      "çĸĳ": 1972,
      "æľĢç»Ī": 1973,
      "ä»ĸä»¬çļĦ": 1974,
      "æĸĩæľ¬ä¸Ń": 1975,
      "æĬ±æŃī": 1976,
      "åªĴ": 1977,
      "è¿ĺåı¯ä»¥": 1978,
      "çļĦæŃ": 1979,
      "éĴŁ": 1980,
      "ä¼łç»Ł": 1981,
      "ç»ŃåĨĻ": 1982,
      "æ¯Ľ": 1983,
      "é¡º": 1984,
      "åĩĨå¤ĩ": 1985,
      "èĮ¶": 1986,
      "é©¾": 1987,
      "æıĲåĪ°": 1988,
      "ä¸Ģæ¬¡": 1989,
      "æĺİäºĨ": 1990,
      "å½ķ": 1991,
      "æıĲåĩº": 1992,
      "åĨ·": 1993,
      "åľºæĻ¯": 1994,
      "å¡ĳ": 1995,
      "ä»Ģä¹Īæĺ¯": 1996,
      "æĥĬ": 1997,
      "ä¸ªèĭ¹æŀľ": 1998,
      "åŁºäºİ": 1999,
      "åľŁ": 2000,
      "è¿Ļä¸ªéĹ®é¢ĺ": 2001,
      "é¢ĳ": 2002,
      "åĪļ": 2003,
      "è¶ĭåĬ¿": 2004,
      "åıĮ": 2005,
      "æĥ³è¦ģ": 2006,
      "æĲľ": 2007,
      "å²ģ": 2008,
      "è®©æĪĳ": 2009,
      "åįļ": 2010,
      "åıĺå¾Ĺ": 2011,
      "å¯»æī¾": 2012,
      "åĵģçīĮ": 2013,
      "ä¸ĵä¸ļ": 2014,
      "æĦıæĢĿ": 2015,
      "æ¸ħæĻ": 2016,
      "è´£": 2017,
      "åĩ»": 2018,
      "ä¸¤ä¸ªåı¥åŃĲ": 2019,
      "æľĹ": 2020,
      "æ·±åº¦": 2021,
      "åĪĿ": 2022,
      "åı¦å¤ĸ": 2023,
      "æľ«": 2024,
      "å¿ĥçĲĨ": 2025,
      "æĪĳä»¬éľĢè¦ģ": 2026,
      "çļĦæ¸": 2027,
      "åıĹåĪ°": 2028,
      "åĿĲ": 2029,
      "ç½ĳç«Ļ": 2030,
      "æĤ£": 2031,
      "æ±ĩ": 2032,
      "éĵģ": 2033,
      "åºķ": 2034,
      "æķ°åŃĹ": 2035,
      "æľ¬ä¹¦": 2036,
      "åı¯æĮģç»Ń": 2037,
      "æĬ¥éģĵ": 2038,
      "ä¿ĥ": 2039,
      "æ¯ıä¸ªäºº": 2040,
      "æľ¬æĸĩ": 2041,
      "å¤§éĩı": 2042,
      "ç¾¤": 2043,
      "é©¶": 2044,
      "æĭ¼": 2045,
      "åħħæ»¡": 2046,
      "è¿Ļéĥ¨çĶµå½±": 2047,
      "è¿Ļä¸ªåı¥åŃĲ": 2048,
      "è§īå¾Ĺ": 2049,
      "å¥¥": 2050,
      "å±Ģ": 2051,
      "æıĲåıĸåĩº": 2052,
      "ä½ľèĢħ": 2053,
      "èŃ¦": 2054,
      "çļĦåħ³éĶ®": 2055,
      "å©": 2056,
      "å·¨": 2057,
      "ä¼ļè®®": 2058,
      "æ¬§": 2059,
      "éĽª": 2060,
      "å®£": 2061,
      "çŁŃè¯Ń": 2062,
      "æľĢåĸľæ¬¢": 2063,
      "é¾Ļ": 2064,
      "çºª": 2065,
      "ç»Ŀ": 2066,
      "ä»İèĢĮ": 2067,
      "æŃ¢": 2068,
      "19": 2069,
      "éļĲ": 2070,
      "è°ģ": 2071,
      "çľģ": 2072,
      "é¡¹çĽ®": 2073,
      "å·¥åħ·": 2074,
      "åķĨåĵģæĸĩæ¡Ī": 2075,
      "éĤ®ä»¶": 2076,
      "åĪĽæĸ°": 2077,
      "åĩºå¤Ħ": 2078,
      "æķħ": 2079,
      "ç»Ļå®ļä¸Ģä¸ª": 2080,
      "è´ŁéĿ¢": 2081,
      "åľ°åĮº": 2082,
      "ç»ª": 2083,
      "èĹ": 2084,
      "èĪŀ": 2085,
      "åĮ»åŃ¦": 2086,
      "çī¹åĪ«": 2087,
      "èĸ": 2088,
      "åªĴä½ĵ": 2089,
      "éĢīé¡¹": 2090,
      "å®ļçļĦ": 2091,
      "ç»ĵæŀĦ": 2092,
      "éĵ¶": 2093,
      "ç©ºæ°Ķ": 2094,
      "ä¸įä¼ļ": 2095,
      "è¶ħè¿ĩ": 2096,
      "æķ°åŃ¦": 2097,
      "æıĲä¾Ľä¸Ģä¸ª": 2098,
      "éĢı": 2099,
      "æĿĥ": 2100,
      "ä¾Ŀ": 2101,
      "æĪĲè¯Ńåĩºå¤Ħ": 2102,
      "èĢĮä¸Ķ": 2103,
      "éĴĪ": 2104,
      "çº½": 2105,
      "å¿Ĺ": 2106,
      "æĿĲæĸĻ": 2107,
      "çľĭåĪ°": 2108,
      "ä»ĭç»įäºĨ": 2109,
      "è¯·åĳĬè¯īæĪĳ": 2110,
      "Ġ\"": 2111,
      "æ±ī": 2112,
      "åĨľ": 2113,
      "éĢłæĪĲ": 2114,
      "ä½ľåĵģ": 2115,
      "çĶµè§Ĩ": 2116,
      "é«ĺçļĦ": 2117,
      "æĪĳæĹłæ³ķ": 2118,
      "èĪª": 2119,
      "éĢĲ": 2120,
      "èĲ¨": 2121,
      "æ¬¢è¿İ": 2122,
      "éĩĩçĶ¨": 2123,
      "çļĦæı": 2124,
      "ç§ĺ": 2125,
      "æľĿ": 2126,
      "æĹ¶å°ļ": 2127,
      "æŁĶ": 2128,
      "å¼Ģåıĳ": 2129,
      "å¿ħé¡»": 2130,
      "åį´": 2131,
      "ä½įç½®": 2132,
      "ç¹": 2133,
      "çļĦæ¯": 2134,
      "åĽłç´ł": 2135,
      "æĢ§çļĦ": 2136,
      "ä¹ħ": 2137,
      "ç»Ļåĩºä¸Ģä¸ª": 2138,
      "é¢ĦæĬ¥": 2139,
      "æ¸Ĳ": 2140,
      "æ³³": 2141,
      "åĲ¸å¼ķ": 2142,
      "å½¢å®¹": 2143,
      "ä»·åĢ¼": 2144,
      "å±ŀäºİ": 2145,
      "çļĦæĶ": 2146,
      "æħ¢": 2147,
      "è°¢è°¢": 2148,
      "ä¸Ĭæµ·": 2149,
      "æıĲåĪ°äºĨ": 2150,
      "éĢĤå½ĵ": 2151,
      "åħ°": 2152,
      "çļĦæĳĺè¦ģ": 2153,
      "ç»ıåħ¸": 2154,
      "è¿Ļæĺ¯ä¸Ģä¸ª": 2155,
      "å®¢æĪ·": 2156,
      "æİ¢è®¨": 2157,
      "æ©Ļ": 2158,
      "æ¸ħæĻ°": 2159,
      "æľºåĻ¨äºº": 2160,
      "åİŁå§ĭ": 2161,
      "å¤«": 2162,
      "éļıçĿĢ": 2163,
      "æĲľç´¢": 2164,
      "çº³": 2165,
      "åįı": 2166,
      "åŃ©åŃĲ": 2167,
      "èª": 2168,
      "åģ¥èº«": 2169,
      "æŃ»": 2170,
      "çĦ¦èĻĳ": 2171,
      "å¤§åĪ©": 2172,
      "çĽĸ": 2173,
      "ä¼½": 2174,
      "åįĬ": 2175,
      "éĻįä½İ": 2176,
      "ç§ģ": 2177,
      "åĬłå¼º": 2178,
      "å¹¸": 2179,
      "çĿ¡çľł": 2180,
      "æĬ½åıĸ": 2181,
      "æĥ¯": 2182,
      "å»ºç«ĭ": 2183,
      "è®¾å¤ĩ": 2184,
      "ç¬¬äºĮ": 2185,
      "èĩªçĶ±": 2186,
      "åĳ¼åĲ¸": 2187,
      "æīĢæľīçļĦ": 2188,
      "åħ±åĲĮ": 2189,
      "çĳľ": 2190,
      "æ¯Ĵ": 2191,
      "çº½çº¦": 2192,
      "åŃ¤": 2193,
      "èģĶç½ĳ": 2194,
      "è´¢": 2195,
      "éĶĢåĶ®": 2196,
      "çļĦæĥħæĦŁ": 2197,
      "éĻĪ": 2198,
      "é¦ĸåħĪ": 2199,
      "åľ°çĤ¹": 2200,
      "æ¥¼": 2201,
      "æ·»åĬł": 2202,
      "çļĦä¸»é¢ĺ": 2203,
      "åĵªä¸ª": 2204,
      "ä¸įä»ħ": 2205,
      "çŃĳ": 2206,
      "åıĺæļĸ": 2207,
      "èĤ¡": 2208,
      "èģļ": 2209,
      "éĥ½æľī": 2210,
      "å·®": 2211,
      "çŃīæĸ¹éĿ¢": 2212,
      "çļĦè¯Ŀ": 2213,
      "åħŃ": 2214,
      "åı«": 2215,
      "ä¸ĢçĽ´": 2216,
      "æĮīçħ§": 2217,
      "çĭ¬çī¹": 2218,
      "å¡ĳæĸĻ": 2219,
      "çĳľä¼½": 2220,
      "çĻ»": 2221,
      "ä¸ĢæŃ¥": 2222,
      "è°Ī": 2223,
      "æ¶ī": 2224,
      "ä¸Ģç¯ĩæĸĩç«ł": 2225,
      "åħ¬åı¸çļĦ": 2226,
      "åľ¨å®¶": 2227,
      "ä»¤äºº": 2228,
      "ç»§": 2229,
      "äººå·¥æĻºèĥ½çļĦ": 2230,
      "å½¢å¼ı": 2231,
      "è´Ńçī©": 2232,
      "ä»¥ä¾¿": 2233,
      "è±Ĩ": 2234,
      "æķ£æŃ¥": 2235,
      "æ¸©åº¦": 2236,
      "ãĢĭãĢģ": 2237,
      "çĽ¸åĲĮ": 2238,
      "å¿«éĢŁ": 2239,
      "»åĬ¨": 2240,
      "è¯ŃéŁ³": 2241,
      "ä¸°å¯Į": 2242,
      "å®ĩ": 2243,
      "æĿ¥è¯´": 2244,
      "ä»£è¡¨": 2245,
      "çī¹çĤ¹": 2246,
      "âĢĶ": 2247,
      "æĽ¾": 2248,
      "çĶŁæĪĲåķĨåĵģæĸĩæ¡Ī": 2249,
      "çļĦæĮ": 2250,
      "å°ıæĺİæľī": 2251,
      "æī§": 2252,
      "çģ¾": 2253,
      "æ¤įçī©": 2254,
      "ç¾İåĳ³": 2255,
      "åĲ«ä¹ī": 2256,
      "è¡Ĺ": 2257,
      "50": 2258,
      "ä¹łæĥ¯": 2259,
      "ç²ī": 2260,
      "çļĦçĶŁæ´»": 2261,
      "æĺ¯æĮĩ": 2262,
      "èĻļ": 2263,
      "åį±": 2264,
      "è¯įè¯Ń": 2265,
      "æµģçķħ": 2266,
      "ç¼ĵè§£": 2267,
      "æĢĿèĢĥ": 2268,
      "å¯Ĵ": 2269,
      "æĺ¯åľ¨": 2270,
      "å¤įæĿĤ": 2271,
      "é©¾é©¶": 2272,
      "æĹ¥æľ¬": 2273,
      "çģ¯": 2274,
      "çī¹å¾ģ": 2275,
      "èĭ±è¯Ń": 2276,
      "å°Ĩä»¥ä¸ĭ": 2277,
      "çļĦæķ°æį®": 2278,
      "ç¢³": 2279,
      "æĹ©ä¸Ĭ": 2280,
      "å¹´è½»": 2281,
      "ä»¥ä¸ĭæĺ¯": 2282,
      "åĬ©äºİ": 2283,
      "åĲįè¯į": 2284,
      "ç»ıå¸¸": 2285,
      "æĿ¿": 2286,
      "ç»ĥä¹ł": 2287,
      "åĽ¾åĥı": 2288,
      "æľºä¼ļ": 2289,
      "çļĦæ²": 2290,
      "ç»ıåİĨ": 2291,
      "æ¸¸æ³³": 2292,
      "çºłéĶĻ": 2293,
      "åĽ½å®¶": 2294,
      "å»ºçŃĳ": 2295,
      "åħ±æľī": 2296,
      "è®©äºº": 2297,
      "ç¹ģ": 2298,
      "çĶľ": 2299,
      "ä¸Ģä½į": 2300,
      "éľ²": 2301,
      "æĭ¿": 2302,
      "æĦŁè§ī": 2303,
      "ä½įäºİ": 2304,
      "åģļåĩº": 2305,
      "å¯¹è¯Ŀ": 2306,
      "æ£Ĵ": 2307,
      "ãĢĭãĢģãĢĬ": 2308,
      "åºĬ": 2309,
      "åŃ¦æł¡": 2310,
      "ä¸ĸçķĮä¸ĬæľĢ": 2311,
      "çĨĬ": 2312,
      "æ°Ķæ¸©": 2313,
      "è¡ĮæĺŁ": 2314,
      "æ·±åº¦åŃ¦ä¹ł": 2315,
      "èģĮä¸ļ": 2316,
      "çļĦæĦıæĢĿ": 2317,
      "æ°§": 2318,
      "æ´Ĺ": 2319,
      "åĪĽå»º": 2320,
      "ç³ķ": 2321,
      "åĪ¶å®ļ": 2322,
      "è¿·": 2323,
      "æł¹æį®ä»¥ä¸ĭ": 2324,
      "çļĦæĦŁ": 2325,
      "åĲĮä¹īè¯į": 2326,
      "æľīè¶£çļĦ": 2327,
      "æİĴæĶ¾": 2328,
      "ç«¯": 2329,
      "åĬ±": 2330,
      "æķ°éĩı": 2331,
      "å¼ºè°ĥ": 2332,
      "è¯·æıĲä¾Ľ": 2333,
      "è·Ł": 2334,
      "å°Ħ": 2335,
      "åģľ": 2336,
      "è¿Ļæ®µæĸĩæľ¬": 2337,
      "è¯¾": 2338,
      "è¯·ç»ĻæĪĳ": 2339,
      "ä¼ĳéĹ²": 2340,
      "è¯Ńè¨Ģæ¨¡åŀĭ": 2341,
      "è¿ĩåİ»": 2342,
      "æĬĢå·§": 2343,
      "ä¸ĭåĪĹ": 2344,
      "ä½¿å¾Ĺ": 2345,
      "ä»İæĸĩç«łä¸ŃæıĲåıĸåĩº": 2346,
      "æĦıè¯Ĩ": 2347,
      "åĢ¼å¾Ĺ": 2348,
      "ä½Ļ": 2349,
      "å¥ĸ": 2350,
      "å°Ĩä¼ļ": 2351,
      "è¿Ļç¯ĩ": 2352,
      "éŁ©": 2353,
      "é¡¿": 2354,
      "çļĦå°ı": 2355,
      "çļĦä¸»": 2356,
      "åĲĪéĢĤ": 2357,
      "çļĦæľĢ": 2358,
      "æĦıä¹ī": 2359,
      "éĵħ": 2360,
      "å²Ľ": 2361,
      "ä»ĺ": 2362,
      "åĢĭ": 2363,
      "çļĦæĬĢæľ¯": 2364,
      "èĪ¬": 2365,
      "ä¹Ŀ": 2366,
      "å¤§åŃ¦": 2367,
      "ä¸ĭæĸĩ": 2368,
      "åı£åĳ³": 2369,
      "åľ¨è¿Ļä¸ª": 2370,
      "æĦī": 2371,
      "è´µ": 2372,
      "è¯Ńæ³ķéĶĻè¯¯": 2373,
      "å®ł": 2374,
      "æ¹ĸ": 2375,
      "åĪĹè¡¨": 2376,
      "è¡Ģ": 2377,
      "å¿«ä¹Ĳ": 2378,
      "æľīåĬ©äºİ": 2379,
      "ç§ĳåŃ¦å®¶": 2380,
      "æľīä¸Ģä¸ª": 2381,
      "çļĦåįķè¯į": 2382,
      "åħ¨çĲĥåıĺæļĸ": 2383,
      "ä¸Ģç»Ħ": 2384,
      "..": 2385,
      "è¸": 2386,
      "èĦļ": 2387,
      "æ£ĢæŁ¥": 2388,
      "åĨ³çŃĸ": 2389,
      "æĻļä¸Ĭ": 2390,
      "ä¼´": 2391,
      "åĩī": 2392,
      "æĪĳä¸į": 2393,
      "å·¦": 2394,
      "çĶµèĦĳ": 2395,
      "æĸ¹åĲĳ": 2396,
      "çŃīé¢ĨåŁŁ": 2397,
      "æĦ¿": 2398,
      "ä¸¥éĩį": 2399,
      "éĿ©": 2400,
      "çĮ®": 2401,
      "100": 2402,
      "åı¯ä»¥éĢļè¿ĩ": 2403,
      "æĭ¼åĨĻ": 2404,
      "å¿ĺ": 2405,
      "çļĦéĩįè¦ģæĢ§": 2406,
      "éĵ¾": 2407,
      "æĭħ": 2408,
      "ç«¥": 2409,
      "ç»ıéªĮ": 2410,
      "çļĦå¥½": 2411,
      "å®¹æĺĵ": 2412,
      "æĹ¥æľŁ": 2413,
      "ç¡Ģ": 2414,
      "é¢Ŀ": 2415,
      "\"<|": 2416,
      "äº¤æµģ": 2417,
      "è¢ĭ": 2418,
      "åŁºç¡Ģ": 2419,
      "éĵħç¬Ķ": 2420,
      "ç±į": 2421,
      "ä¿ĥè¿Ľ": 2422,
      "ä¸įè¿ĩ": 2423,
      "è·Ŀ": 2424,
      "ç§ĳå¹»": 2425,
      "çī©åĵģ": 2426,
      "èĢĲ": 2427,
      "çŁŃæĸĩ": 2428,
      "__": 2429,
      "èģĶç³»": 2430,
      "æĸĩåŃ¦": 2431,
      "å¤ļä¸ª": 2432,
      "åģı": 2433,
      "è¿Ļå®¶": 2434,
      "æĪĳå¾Ī": 2435,
      "è¿ĻéĩĮ": 2436,
      "çĥĪ": 2437,
      "è°·": 2438,
      "èĲ¥åħ»": 2439,
      "åĨł": 2440,
      "çĽ¸ä¼¼": 2441,
      "èĿ": 2442,
      "ä»¿": 2443,
      "éĽħ": 2444,
      "æŃ£éĿ¢": 2445,
      "æĪ·å¤ĸ": 2446,
      "èİ·åıĸ": 2447,
      "å¸¸è§ģ": 2448,
      "ä¸įè¦ģ": 2449,
      "ä»įçĦ¶": 2450,
      "è´§": 2451,
      "çļĦæ´": 2452,
      "å°ıæĹ¶": 2453,
      "ä¸įåı¯": 2454,
      "æĬĢèĥ½": 2455,
      "åħĭåĬĽ": 2456,
      "åī©ä¸ĭ": 2457,
      "çļĦæłĩé¢ĺ": 2458,
      "çļĦåĨħå®¹": 2459,
      "å¢ŀå¼º": 2460,
      "ç®Ģæ´ģæĺİäºĨ": 2461,
      "è¯Ħä»·": 2462,
      "æĲŃéħį": 2463,
      "éĢŁåº¦": 2464,
      "åı³": 2465,
      "åĿı": 2466,
      "å·§åħĭåĬĽ": 2467,
      "æ²ī": 2468,
      "åİļ": 2469,
      "çļĦæ°Ķ": 2470,
      "è¡¨æĺİ": 2471,
      "çļĦæ°´": 2472,
      "ä¸Ģå®ļ": 2473,
      "çľĭçĶµå½±": 2474,
      "å¤ıåŃ£": 2475,
      "æĪĳéľĢè¦ģ": 2476,
      "æļ´": 2477,
      "12": 2478,
      "æĬ¥åĳĬ": 2479,
      "ç¼ĸåĨĻ": 2480,
      "é»İ": 2481,
      "è¯įæ±ĩ": 2482,
      "çļĦä¸»è¦ģè§ĤçĤ¹": 2483,
      "éĨĴ": 2484,
      "åıĹæ¬¢è¿İ": 2485,
      "çİ¯å¢ĥä¿ĿæĬ¤": 2486,
      "æµ·æ´ĭ": 2487,
      "å®½": 2488,
      "å®«": 2489,
      "åľĨ": 2490,
      "ç£": 2491,
      "åŁºæľ¬": 2492,
      "ç»¿èī²": 2493,
      "åĪĽä½ľ": 2494,
      "èµı": 2495,
      "çī©è´¨": 2496,
      "ä¸ĭæĿ¥": 2497,
      "é¼ĵ": 2498,
      "è½¯ä»¶": 2499,
      "åħ«": 2500,
      "å¿Ĩ": 2501,
      "åĳ¨æľ«": 2502,
      "ç§Ģ": 2503,
      "æĹı": 2504,
      "äººåĳĺ": 2505,
      "æĿ¡ä»¶": 2506,
      "å½ĵåīį": 2507,
      "æ£®": 2508,
      "åĭĩ": 2509,
      "äºĨä¸ĢäºĽ": 2510,
      "å®łçī©": 2511,
      "ä¸ĥ": 2512,
      "ç¤¾äº¤åªĴä½ĵ": 2513,
      "æľīäºĽ": 2514,
      "å¤ļç§į": 2515,
      "æĿĳ": 2516,
      "æ°´å¹³": 2517,
      "è·³": 2518,
      "éĻĦ": 2519,
      "çİī": 2520,
      "ç³»åĪĹ": 2521,
      "é¥°": 2522,
      "åĨĴ": 2523,
      "æĴŃ": 2524,
      "åĪĹåĩº": 2525,
      "æ»ĳ": 2526,
      "åĨĻä½ľ": 2527,
      "æ¶īåıĬ": 2528,
      "è§Ĩè§ī": 2529,
      "ä¹ĺ": 2530,
      "è®©ä½ł": 2531,
      "åĲĪä½ľ": 2532,
      "åĲĮæĹ¶ä¹Ł": 2533,
      "æĻ¯çĤ¹": 2534,
      "çļĦé£Łçī©": 2535,
      "éĢĶ": 2536,
      "18": 2537,
      "æĹ¥å¸¸": 2538,
      "èĮĥåĽ´": 2539,
      "ç»§ç»Ń": 2540,
      "å¹³è¡¡": 2541,
      "ç«ŀ": 2542,
      "æĽ´å¥½çļĦ": 2543,
      "åħ¶ä¸ŃçļĦ": 2544,
      "æ´ŀ": 2545,
      "ç¬¬ä¸Ģ": 2546,
      "è¯·æıĲåıĸ": 2547,
      "çļĦåľ°æĸ¹": 2548,
      "åı£æĦŁ": 2549,
      "äºĴèģĶç½ĳ": 2550,
      "ä¸ªç³ĸæŀľ": 2551,
      "æĺĵäºİ": 2552,
      "åıªæľī": 2553,
      "äººçī©": 2554,
      "æĻ´": 2555,
      "æľªæĿ¥çļĦ": 2556,
      "éĿ¢ä¸´": 2557,
      "å¯Ł": 2558,
      "æĦŁè°¢": 2559,
      "åĬĽåĴĮ": 2560,
      "ç»ĦæĪĲ": 2561,
      "è·ĳæŃ¥": 2562,
      "æĸĩç«łä¸ŃçļĦ": 2563,
      "çĥŁ": 2564,
      "çĽ¸åħ³çļĦ": 2565,
      "åĵªéĩĮ": 2566,
      "ä¸Ńæĸĩ": 2567,
      "å¡Ķ": 2568,
      "åºĶå¯¹": 2569,
      "åıĤä¸İ": 2570,
      "ç¨³": 2571,
      "è¶³çĲĥ": 2572,
      "ä¸Ģæł·": 2573,
      "çĽĽ": 2574,
      "èĩªæĪĳ": 2575,
      "åŃ£èĬĤ": 2576,
      "è¡£æľį": 2577,
      "åºŁ": 2578,
      "å°ģ": 2579,
      "å®Ļ": 2580,
      "åĽ½éĻħ": 2581,
      "æĩĤ": 2582,
      "ä¾ĭåŃĲ": 2583,
      "çļĦæ®": 2584,
      "æĹ§": 2585,
      "ç±»åĪ«": 2586,
      "30": 2587,
      "æ°¸": 2588,
      "çļĦæĹ¶åĢĻ": 2589,
      "æł¹æį®æıĲä¾Ľ": 2590,
      "è®¢": 2591,
      "è½¬æį¢": 2592,
      "æĬĺ": 2593,
      "åĪĨäº«": 2594,
      "éĤ£éĩĮ": 2595,
      "å®Ī": 2596,
      "ï¼ļãĢĬ": 2597,
      "ç¥Ŀ": 2598,
      "æİ¨èįĲä¸Ģ": 2599,
      "çļĦæĸ¹å¼ı": 2600,
      "æµĵ": 2601,
      "è§Ĵèī²": 2602,
      "å½¢æĪĲ": 2603,
      "çıł": 2604,
      "å®ĩå®Ļ": 2605,
      "ä¿Ŀåģ¥": 2606,
      "ä¸ºæĪĳ": 2607,
      "éģĹ": 2608,
      "ä¸ªæĢ§": 2609,
      "åı¯ä»¥åľ¨": 2610,
      "åĺ": 2611,
      "ç§ĭå¤©": 2612,
      "å»ºè®®æĤ¨": 2613,
      "è¿ĽæŃ¥": 2614,
      "å¤ªç©º": 2615,
      "ä¸Ŀ": 2616,
      "å°Ĭ": 2617,
      "åľ°æĸ¹": 2618,
      "ç¥ŀç»ı": 2619,
      "æī¿": 2620,
      "æ´¾": 2621,
      "ç¯®": 2622,
      "éĩįåĨĻä»¥ä¸ĭåı¥åŃĲ": 2623,
      "å®ŀéĻħ": 2624,
      "çİĽ": 2625,
      "äºĭå®ŀ": 2626,
      "å¸Ŀ": 2627,
      "å¼ķèµ·": 2628,
      "æĪĳåľ¨": 2629,
      "æķĪæŀľ": 2630,
      "åį³åı¯": 2631,
      "åħ³éĶ®ä¿¡æģ¯": 2632,
      "æ»¡è¶³": 2633,
      "æ©ĻåŃĲ": 2634,
      "èĥĮæĻ¯": 2635,
      "è®¿": 2636,
      "çĽĺ": 2637,
      "åĪĨéĴŁ": 2638,
      "æĢ»æĺ¯": 2639,
      "åĶ±": 2640,
      "çĹĽ": 2641,
      "èģĬå¤©": 2642,
      "æĺł": 2643,
      "èĳĹåĲįçļĦ": 2644,
      "æĶ¿çŃĸ": 2645,
      "çļĦæµ·": 2646,
      "éĴĪå¯¹": 2647,
      "èĨ": 2648,
      "çİ°å®ŀ": 2649,
      "æķĳ": 2650,
      "å¤©ç©º": 2651,
      "å¥¹çļĦ": 2652,
      "éĩįçĤ¹": 2653,
      "å·´é»İ": 2654,
      "çļĦæ®µ": 2655,
      "æĬķèµĦ": 2656,
      "åĮ»çĸĹé¢ĨåŁŁ": 2657,
      "åĩıè½»": 2658,
      "å¹´çļĦ": 2659,
      "éħ±": 2660,
      "è´£ä»»": 2661,
      "æĪĳæľĢè¿ĳ": 2662,
      "æ³°": 2663,
      "å°Ĩä»¥ä¸ĭåı¥åŃĲ": 2664,
      "å®ľ": 2665,
      "åıĸå¾Ĺ": 2666,
      "å®¶å±ħ": 2667,
      "åĨ¥": 2668,
      "åĪº": 2669,
      "èĹı": 2670,
      "æĸĩæľ¬è¿Ľè¡Į": 2671,
      "åĿ¦": 2672,
      "æıĲä¾Ľä¸ĢäºĽ": 2673,
      "é¡¾": 2674,
      "è¿Ļä¸Ģ": 2675,
      "å¢ŀéķ¿": 2676,
      "è·Ŀç¦»": 2677,
      "åľ¨çº¿": 2678,
      "åħ·ä½ĵçļĦ": 2679,
      "è®©æĪĳä»¬": 2680,
      "éªĳ": 2681,
      "éĿł": 2682,
      "åĽ¢éĺŁ": 2683,
      "ä¸ĢåĲį": 2684,
      "åĳ³éģĵ": 2685,
      "èį¯çī©": 2686,
      "è¿Ľä¸ĢæŃ¥": 2687,
      "åĬĽéĩı": 2688,
      "éº¦": 2689,
      "ä¹¡": 2690,
      "å¹¸ç¦ı": 2691,
      "ç¾İå¥½": 2692,
      "æķ´ä¸ª": 2693,
      "çļĦæ®µèĲ½": 2694,
      "æĥħèĬĤ": 2695,
      "çīĽå¥¶": 2696,
      "æ±ł": 2697,
      "çĨŁ": 2698,
      "çļĦé£İæł¼": 2699,
      "æİ¨çĲĨ": 2700,
      "çĤİ": 2701,
      "æĬ½åıĸåĩº": 2702,
      "å¹³åĿĩ": 2703,
      "èĭı": 2704,
      "éĸ": 2705,
      "èĦĤ": 2706,
      "çĬ¶åĨµ": 2707,
      "ä¸ľè¥¿": 2708,
      "çī¹å®ļ": 2709,
      "æĺŁæľŁ": 2710,
      "æĸĩæľ¬ä¸ŃçļĦ": 2711,
      "æģĲ": 2712,
      "ä»¥ä¸ĭæĺ¯ä¸Ģ": 2713,
      "æľīåĵªäºĽ": 2714,
      "åħĥç´ł": 2715,
      "å¿Ļ": 2716,
      "ä¹¦ç±į": 2717,
      "åĩºæĿ¥": 2718,
      "æģ¶": 2719,
      "ä¹³": 2720,
      "æĦıå¤§åĪ©": 2721,
      "ç©ºéĹ´": 2722,
      "åıĳå¸ĥ": 2723,
      "æľīä¸Ģ": 2724,
      "æ¾": 2725,
      "æĪĳæ²¡æľī": 2726,
      "æĢ»ç»Ł": 2727,
      "æŀ¶": 2728,
      "ä¸Ĭåįĩ": 2729,
      "æĤ¨éľĢè¦ģ": 2730,
      "éħ¸": 2731,
      "åĬ³": 2732,
      "èĥ½åĲ¦": 2733,
      "ç¼©": 2734,
      "åĲĪçĲĨ": 2735,
      "æİĮ": 2736,
      "æĮ¥": 2737,
      "å®ļä¹ī": 2738,
      "çº¸": 2739,
      "æĮĩåĩº": 2740,
      "çļĦæĹ¶éĹ´": 2741,
      "åĽłä¸ºå®ĥ": 2742,
      "è¶³å¤Ł": 2743,
      "15": 2744,
      "é«ĺæķĪ": 2745,
      "èĲ¥éĶĢ": 2746,
      "è¾Ĩ": 2747,
      "ç¬¦åĲĪ": 2748,
      "çļĦæĸ°": 2749,
      "è®ºæĸĩ": 2750,
      "æĸ°éĹ»æĬ¥éģĵ": 2751,
      "çĪ¶": 2752,
      "åĽ°éļ¾": 2753,
      "ï¼ŁâĢĿ": 2754,
      "æļĹ": 2755,
      "åĢĴ": 2756,
      "æµģè¡Į": 2757,
      "åģ¥åº·é¥®é£Ł": 2758,
      "çĥ§": 2759,
      "è¯´æĺİ": 2760,
      "éĽ¶": 2761,
      "å§Ĩ": 2762,
      "çīĻ": 2763,
      "è©": 2764,
      "ç»ĨèĬĤ": 2765,
      "ä¹İ": 2766,
      "éļĲç§ģ": 2767,
      "æł¸": 2768,
      "ç¬¦åı·": 2769,
      "æ¬£": 2770,
      "çļĦå¤§": 2771,
      "æĵį": 2772,
      "æľīçĿĢ": 2773,
      "åģ¥åº·çļĦ": 2774,
      "æŁ¥è¯¢": 2775,
      "ä¹ĭåīį": 2776,
      "éŃĶ": 2777,
      "çŃ¾": 2778,
      "åĮ»çĸĹä¿Ŀåģ¥": 2779,
      "èĩªè¡Į": 2780,
      "äº¿": 2781,
      "ç®±": 2782,
      "çĬ¶æĢģ": 2783,
      "åĲ¯": 2784,
      "ä»İè¿Ļç¯ĩæĸĩç«łä¸ŃæıĲåıĸåĩº": 2785,
      "çļĦè¯Ńè¨Ģ": 2786,
      "çĬ¯": 2787,
      "æĢĢ": 2788,
      "çļĦæĢ»": 2789,
      "åīįå¾Ģ": 2790,
      "åĵ¥": 2791,
      "å¹³åı°": 2792,
      "åĿļæĮģ": 2793,
      "ä¼°": 2794,
      "å®ĥä»¬çļĦ": 2795,
      "æ½ľ": 2796,
      "å¹¿åĳĬ": 2797,
      "åĨ²": 2798,
      "æ¼Ķåĳĺ": 2799,
      "æµ·æ»©": 2800,
      "æĸ¹ä¾¿": 2801,
      "åķĨä¸ļ": 2802,
      "åŁ¹": 2803,
      "çº¯": 2804,
      "æİī": 2805,
      "éģį": 2806,
      "Ġ-": 2807,
      "å¤ļæł·": 2808,
      "éķ¿åº¦": 2809,
      "åºĶçĶ¨äºİ": 2810,
      "çº¢èī²": 2811,
      "ä¿ĿæĬ¤çİ¯å¢ĥ": 2812,
      "èĤ¤": 2813,
      "å®ģ": 2814,
      "åĮĸçļĦ": 2815,
      "Ģæľī": 2816,
      "åºĶçĶ¨ç¨ĭåºı": 2817,
      "æŃ¦": 2818,
      "è¿Ļæľ¬ä¹¦": 2819,
      "å¹ħ": 2820,
      "å¥ĭ": 2821,
      "ç±»ä¼¼": 2822,
      "æµĭè¯ķ": 2823,
      "åı¯æĮģç»Ńåıĳå±ķ": 2824,
      "æĬĹ": 2825,
      "å¦Ī": 2826,
      "åĳĺå·¥": 2827,
      "æĺ¯ä¸Ģéĥ¨": 2828,
      "æĶ¹è¿Ľ": 2829,
      "è²": 2830,
      "æī¾åĩº": 2831,
      "å¸ģ": 2832,
      "éĿŀå¸¸å¥½": 2833,
      "æŃ£ç¡®çļĦ": 2834,
      "äº¡": 2835,
      "çĽ®çļĦåľ°": 2836,
      "ç¥ŀç§ĺ": 2837,
      "äººç±»çļĦ": 2838,
      "åĬ¨ä½ľ": 2839,
      "åĨ¥æĥ³": 2840,
      "äººçĶŁ": 2841,
      "çªĹ": 2842,
      "æĤ£èĢħ": 2843,
      "çĤº": 2844,
      "æ¼Ĥ": 2845,
      "ä»ĸåľ¨": 2846,
      "è¾£": 2847,
      "åĪ¶éĢł": 2848,
      "åĶĲ": 2849,
      "çļĦæĥħåĨµ": 2850,
      "çĸ«æĥħ": 2851,
      "çºłæŃ£": 2852,
      "è½»æĿ¾": 2853,
      "å¾Ħ": 2854,
      "æĿĢ": 2855,
      "æıĲåįĩ": 2856,
      "æĢĿæĥ³": 2857,
      "å¼ĢæĶ¾": 2858,
      "æ¨¡å¼ı": 2859,
      "é«ĺåħ´": 2860,
      "åķĬ": 2861,
      "æľºæŀĦ": 2862,
      "çĬ¬": 2863,
      "è¿ĩç¨ĭä¸Ń": 2864,
      "åħ¬åħ±": 2865,
      "æĸĹ": 2866,
      "è¿Ļé¦ĸ": 2867,
      "åĬ¨è¯į": 2868,
      "åĢĳ": 2869,
      "æı¡": 2870,
      "è°ĥæķ´": 2871,
      "çļĦä¼ĺ": 2872,
      "åĹ": 2873,
      "è®²è¿°äºĨ": 2874,
      "åĪĨåĪ«": 2875,
      "å®¶äºº": 2876,
      "æ¶¦": 2877,
      "ï¼ĮâĢľ": 2878,
      "åĲĽ": 2879,
      "æ·±åħ¥": 2880,
      "æĿŁ": 2881,
      "æĳĺ": 2882,
      "æł¹æį®ç»Ļå®ļçļĦæĸĩæľ¬": 2883,
      "å´": 2884,
      "202": 2885,
      "è¿Ļæ¬¾": 2886,
      "çµ": 2887,
      "å¯¿": 2888,
      "æ¹¿": 2889,
      "é£ĺ": 2890,
      "å¼ĥ": 2891,
      "ä¸ºæĤ¨æıĲä¾Ľ": 2892,
      "æĤ¦": 2893,
      "çĴ": 2894,
      "éĻĲåĪ¶": 2895,
      "âĢ¦": 2896,
      "çļĦæīĢæľī": 2897,
      "æĦŁåıĹ": 2898,
      "èĭ¦": 2899,
      "å¹¶åľ¨": 2900,
      "åŃĹæ¯į": 2901,
      "éĶħ": 2902,
      "ç®Ģè¦ģ": 2903,
      "éķĩ": 2904,
      "æĢ¥": 2905,
      "èķī": 2906,
      "æ¡Į": 2907,
      "æĪĳè®¤ä¸º": 2908,
      "çĹħæ¯Ĵ": 2909,
      "åįģåĪĨ": 2910,
      "å°į": 2911,
      "è®¨è®ºäºĨ": 2912,
      "å·Ŀ": 2913,
      "«èĲ¨": 2914,
      "è¯»èĢħ": 2915,
      "è´¡": 2916,
      "çļĦæŃĮ": 2917,
      "å°Ĩåľ¨": 2918,
      "å¿ħè¦ģ": 2919,
      "æ°ı": 2920,
      "åºĨ": 2921,
      "ä¸ĭåįĪ": 2922,
      "çĶ°": 2923,
      "çĩĥ": 2924,
      "ä¸Ģåħ±æľī": 2925,
      "èĽĭç³ķ": 2926,
      "è°±": 2927,
      "çĶŁæĢģç³»ç»Ł": 2928,
      "ä¸Ģæ®µæĸĩæľ¬": 2929,
      "æ¨¡æĭŁ": 2930,
      "çĽ´æİ¥": 2931,
      "æ±¤": 2932,
      "çļĦæııè¿°": 2933,
      "çĪ±å¥½": 2934,
      "åŃ¤çĭ¬": 2935,
      "è°ĥæŁ¥": 2936,
      "ä¸ŃæľĢ": 2937,
      "é¥¼": 2938,
      "ç©¿çĿĢ": 2939,
      "æİ¨åĬ¨": 2940,
      "çļĦæĻ¯": 2941,
      "åı¯çĪ±": 2942,
      "ä½Ľ": 2943,
      "GP": 2944,
      "çļĦæ´»åĬ¨": 2945,
      "å¹¶æıĲä¾Ľ": 2946,
      "çıį": 2947,
      "æī§è¡Į": 2948,
      "æĶ»": 2949,
      "ç²¾ç¥ŀ": 2950,
      "æ£ī": 2951,
      "ç®Ģçº¦": 2952,
      "çĦ¶èĢĮ": 2953,
      "åľ£": 2954,
      "éĢĤåºĶ": 2955,
      "é¦Ļèķī": 2956,
      "æĺ¾ç¤º": 2957,
      "ç½ª": 2958,
      "æĥħç»ª": 2959,
      "è¡¨è¾¾äºĨ": 2960,
      "éĿ¢æĸĻ": 2961,
      "å°¾": 2962,
      "çĶŁæĹ¥": 2963,
      "èĭ±åĽ½": 2964,
      "èī¯å¥½çļĦ": 2965,
      "åĴ¨": 2966,
      "è¿Ļç¯ĩæĸĩç«łä¸Ń": 2967,
      "æ¸©æļĸ": 2968,
      "èĤ¥": 2969,
      "éļľ": 2970,
      "ç¿°": 2971,
      "æľĢåĸľæ¬¢çļĦ": 2972,
      "è¾¾åĪ°": 2973,
      "æ°Ķä½ĵ": 2974,
      "å·¥ç¨ĭ": 2975,
      "èĩªåĬ¨é©¾é©¶": 2976,
      "çĶ³": 2977,
      "ä¸ĢèĪ¬": 2978,
      "åĲ¹": 2979,
      "ä¸Ģå®¶": 2980,
      "çļĦæĻº": 2981,
      "åĲĪå¹¶": 2982,
      "è´¥": 2983,
      "åĸ»": 2984,
      "éĿ¢åĮħ": 2985,
      "ä»£çłģ": 2986,
      "å·¦åı³": 2987,
      "é¾Ħ": 2988,
      "ä»¥ä¸Ĭ": 2989,
      "éĹŃ": 2990,
      "å¤ªéĺ³ç³»": 2991,
      "¡èĲ": 2992,
      "çŃĸçķ¥": 2993,
      "çī©çĲĨ": 2994,
      "ç¾İä¸½çļĦ": 2995,
      "åºĵ": 2996,
      "å½¢å®¹è¯į": 2997,
      "æ··": 2998,
      "çļĦæ³": 2999,
      "éľĩ": 3000,
      "èĢ³": 3001,
      "è´Ŀ": 3002,
      "çļĦæ¦Ĥ": 3003,
      "çļĦæĭ": 3004,
      "æĸĩæľ¬éĶĻè¯¯": 3005,
      "åĩºèī²": 3006,
      "å°¤": 3007,
      "åĴ¨è¯¢": 3008,
      "æİ¨å¹¿": 3009,
      "æĺ¯çļĦ": 3010,
      "é½": 3011,
      "æī©": 3012,
      "çļĦçŃĶæ¡Ī": 3013,
      "ç¾İå¥½çļĦ": 3014,
      "æ³ķå¾ĭ": 3015,
      "åħµ": 3016,
      "å°Ĩä¸ĭéĿ¢": 3017,
      "åı¤ä»£": 3018,
      "æŃĮæĽ²": 3019,
      "åŃ¦ä¹łåĴĮ": 3020,
      "æıı": 3021,
      "ç»ĺ": 3022,
      "è¡«": 3023,
      "åĨįçĶŁ": 3024,
      "å»¶": 3025,
      "ªæĺİ": 3026,
      "åłĤ": 3027,
      "æĿ¥èĩª": 3028,
      "åı¤è¯Ĺç»ŃåĨĻ": 3029,
      "ä¾Ĩ": 3030,
      "èĵĿèī²": 3031,
      "åı¯èĥ½æĺ¯": 3032,
      "GPT": 3033,
      "ãĢĭãĢĤ": 3034,
      "å¼łä¸ī": 3035,
      "æĺİç¡®": 3036,
      "æľµ": 3037,
      "åĤ¨": 3038,
      "ç¾İåħĥ": 3039,
      "å¼¹": 3040,
      "åĸľå¥½": 3041,
      "æĪĲéķ¿": 3042,
      "çĺ": 3043,
      "è®°å½ķ": 3044,
      "ä¸ĢäºĽåħ³äºİ": 3045,
      "èĪ¹": 3046,
      "éĻĦè¿ĳ": 3047,
      "èĩªè¡Įè½¦": 3048,
      "æľĢä½³": 3049,
      "ä¸»è¦ģè§ĤçĤ¹": 3050,
      "±ä¹Ĳ": 3051,
      "éĴ¢": 3052,
      "æ´Ľ": 3053,
      "éº»": 3054,
      "å¦Ļ": 3055,
      "åį·": 3056,
      "æīĢåľ¨": 3057,
      "çĶŁæĪĲæĳĺè¦ģ": 3058,
      "åĽº": 3059,
      "èĽĭçĻ½": 3060,
      "æĪĳä»¬åºĶè¯¥": 3061,
      "å®Įåħ¨": 3062,
      "ä¸ĸçºª": 3063,
      "æ±ģ": 3064,
      "è¶ħå¸Ĥ": 3065,
      "çĽ¾": 3066,
      "ä¼ĺåĮĸ": 3067,
      "è¯ŃéŁ³è¯ĨåĪ«": 3068,
      "æľĢå¥½çļĦ": 3069,
      "è¿¹": 3070,
      "è¿Ķ": 3071,
      "èĭ¥": 3072,
      "æĿ°": 3073,
      "çĶ¨æĿ¥": 3074,
      "èİ«": 3075,
      "ä¸Ĭè¿°": 3076,
      "éĩıåŃĲ": 3077,
      "èĭĹ": 3078,
      "åĵ¦": 3079,
      "èĤ¯": 3080,
      "æĪĳæĥ³çŁ¥éģĵ": 3081,
      "æĺĵæĩĤ": 3082,
      "æľĢæĸ°": 3083,
      "è½½": 3084,
      "å¥ı": 3085,
      "æĺĵäºİçĲĨè§£": 3086,
      "è´¡çĮ®": 3087,
      "æİ¢è®¨äºĨ": 3088,
      "åĪĽå»ºä¸Ģä¸ª": 3089,
      "æĪĲä¸Ģä¸ª": 3090,
      "çļĦäºĭæĥħ": 3091,
      "å¿ĥæĥħ": 3092,
      "æıĲä¾ĽäºĨ": 3093,
      "æĸĩè¨Ģ": 3094,
      "å¾ĪæĬ±æŃī": 3095,
      "é¼ĵåĬ±": 3096,
      "è§£åĨ³æĸ¹æ¡Ī": 3097,
      "çļĦéŁ³ä¹Ĳ": 3098,
      "åįļçī©": 3099,
      "æĸĩè¨Ģæĸĩ": 3100,
      "åĽŀæĶ¶": 3101,
      "å¤§æ°Ķ": 3102,
      "æĭį": 3103,
      "é¢Ħéĺ²": 3104,
      "æ¶Īè´¹": 3105,
      "ä¹°äºĨ": 3106,
      "çļĦä¸Ģä¸ª": 3107,
      "è¢ĸ": 3108,
      "ä¸ªåŃĹ": 3109,
      "æ³ķåĽ½": 3110,
      "æľĢé«ĺ": 3111,
      "å®ĥæĺ¯": 3112,
      "çĹĩçĬ¶": 3113,
      "çļĦå·¥ä½ľ": 3114,
      "ä»Ķ": 3115,
      "èµŀ": 3116,
      "å«": 3117,
      "æİ¨åĩº": 3118,
      "æ£®æŀĹ": 3119,
      "å·¥ä¸ļ": 3120,
      "å§Ķ": 3121,
      "æľīæīĢ": 3122,
      "å¤§å®¶": 3123,
      "æĹ©é¤Ĳ": 3124,
      "ç»©": 3125,
      "ä»Ĭå¹´": 3126,
      "éļıæĹ¶": 3127,
      "çİ°è±¡": 3128,
      "äººæ°ĳ": 3129,
      "å¥½çľĭ": 3130,
      "å°ıåŃ¦": 3131,
      "åģĩè®¾": 3132,
      "çŁĽ": 3133,
      "å¸¦æĿ¥äºĨ": 3134,
      "èº«ä½ĵåģ¥åº·": 3135,
      "çļĦåİĨåı²": 3136,
      "å®Ĺ": 3137,
      "ä¸ĬéĿ¢": 3138,
      "çł´åĿı": 3139,
      "æ¬²": 3140,
      "å®īæİĴ": 3141,
      "å¯»æ±Ĥ": 3142,
      "çº¦ç¿°": 3143,
      "æĬĢæľ¯çļĦ": 3144,
      "å©ļ": 3145,
      "è¡¥": 3146,
      "æ¦": 3147,
      "ä¸Ĭä¸ĭæĸĩ": 3148,
      "èĥģ": 3149,
      "ä¸ĢæĿ¡": 3150,
      "éĽ·": 3151,
      "é¸¡èĽĭ": 3152,
      "èģªæĺİ": 3153,
      "è¯·çĶ¨": 3154,
      "æĪĲæľ¬": 3155,
      "åĨ¬åŃ£": 3156,
      "èİĵ": 3157,
      "åī¯": 3158,
      "éĻĪè¿°": 3159,
      "çĤĴ": 3160,
      "çļĦæĢĿ": 3161,
      "ä¸ĭéĽ¨": 3162,
      "çħ®": 3163,
      "çļĦéĢīæĭ©": 3164,
      "éª¨": 3165,
      "çľŁçļĦ": 3166,
      "å¹¶ä¸į": 3167,
      "çļĩ": 3168,
      "ç¯®çĲĥ": 3169,
      "èĩ³å°ĳ": 3170,
      "åĳĪ": 3171,
      "çŁĽçĽ¾": 3172,
      "èĦ±": 3173,
      "éĢĲæ¸Ĳ": 3174,
      "æ·±åĪ»": 3175,
      "åĲĦä¸ª": 3176,
      "ä¸įè¶ħè¿ĩ": 3177,
      "éª¤": 3178,
      "çĪĨ": 3179,
      "ç¤¼çī©": 3180,
      "çĶŁåŃĺ": 3181,
      "å®ĥåı¯ä»¥": 3182,
      "çĽĲ": 3183,
      "è¯·å¯¹": 3184,
      "åħ¬åĽŃéĩĮ": 3185,
      "çĵ¶": 3186,
      "çĸ²": 3187,
      "è½®": 3188,
      "åıĳæĮ¥": 3189,
      "ãĢĭï¼Į": 3190,
      "éĻĨ": 3191,
      "ç¶": 3192,
      "éĺ´": 3193,
      "åĲİçļĦ": 3194,
      "è¿ª": 3195,
      "å¨ģèĥģ": 3196,
      "æĪ¿éĹ´": 3197,
      "æĹ¶ä»£": 3198,
      "ä¼ĺç§Ģ": 3199,
      "çİ¯å¢ĥæ±¡æŁĵ": 3200,
      "çĤ¹ç¬¦åı·": 3201,
      "åĢŁ": 3202,
      "æĸ°é²ľ": 3203,
      "æĥł": 3204,
      "å®Įæķ´": 3205,
      "è¿½æ±Ĥ": 3206,
      "åĪĨç»Ļ": 3207,
      "çļĦåŁİå¸Ĥ": 3208,
      "çļĦä¸»æĹ¨": 3209,
      "çĽ¸ä¿¡": 3210,
      "çĶ·å£«": 3211,
      "é¥®æĸĻ": 3212,
      "ä½ĵèĤ²": 3213,
      "æĺ¯ä¸ŃåĽ½": 3214,
      "è¿Ľè¡Įæĳĺè¦ģ": 3215,
      "ç»ĵåĲĪ": 3216,
      "å±ķç¤º": 3217,
      "éĥģ": 3218,
      "èĬĤçº¦": 3219,
      "éĵ¶è¡Į": 3220,
      "æł¹æį®è¾ĵåħ¥": 3221,
      "ç»ıè¿ĩ": 3222,
      "åĩĢ": 3223,
      "åĽŀå®¶": 3224,
      "æįŁ": 3225,
      "æµ®": 3226,
      "ç´¯": 3227,
      "ä½łéľĢè¦ģ": 3228,
      "ä¸Ńç«ĭ": 3229,
      "ç»Ĵ": 3230,
      "éĥ½ä¼ļ": 3231,
      "æ¦Ĥå¿µ": 3232,
      "ä¼Ĭ": 3233,
      "ç®ĢåįķçļĦ": 3234,
      "æ¤Ĵ": 3235,
      "è¯º": 3236,
      "éĢĢ": 3237,
      "è¿ĺåī©ä¸ĭ": 3238,
      "èĩªåĬ¨åĮĸ": 3239,
      "çĽ¸åºĶ": 3240,
      "ç«ŀäºī": 3241,
      "èķ´": 3242,
      "çļĦæ¯Ķ": 3243,
      "ç»Ļä½ł": 3244,
      "çļĦæĥ³": 3245,
      "æĹ¢": 3246,
      "åįļçī©é¦Ĩ": 3247,
      "æĻ¨": 3248,
      "è¯¾ç¨ĭ": 3249,
      "åŃ¸": 3250,
      "èĤĮ": 3251,
      "ä¼ĺè´¨": 3252,
      "éĢĻ": 3253,
      "çĻĮ": 3254,
      "å¤ĸå¥Ĺ": 3255,
      "æ½®æµģ": 3256,
      "å®ļæľŁ": 3257,
      "ç§»": 3258,
      "æŁ¥æī¾": 3259,
      "åıįåºĶ": 3260,
      "æľĢå¥½": 3261,
      "å¤©æ°Ķé¢ĦæĬ¥": 3262,
      "ç§įç±»": 3263,
      "åĴĮä¸Ģä¸ª": 3264,
      "åĪĺ": 3265,
      "çļĦå°ıè¯´": 3266,
      "åĲī": 3267,
      "å°Ĩå®ĥä»¬": 3268,
      "å¾ª": 3269,
      "æħ§": 3270,
      "è·µ": 3271,
      "åĪĨç±»ä¸º": 3272,
      "å¡«": 3273,
      "èľľ": 3274,
      "å¸®æĪĳæĥ³": 3275,
      "çļĦæīĭ": 3276,
      "èº«å¿ĥ": 3277,
      "çĶļ": 3278,
      "ç»Ļå®ļçļĦæĸĩæľ¬": 3279,
      "èĻļæĭŁ": 3280,
      "å°Ĩä»¥ä¸ĭæĸĩæľ¬": 3281,
      "ä¸Ĭæĸĩ": 3282,
      "è§Ĩé¢ĳ": 3283,
      "ä¸Ģä¸ªäºº": 3284,
      "çľŁæŃ£": 3285,
      "éĤ£ä¸ª": 3286,
      "æ¶Īæŀģ": 3287,
      "å®¾": 3288,
      "è¾ħ": 3289,
      "é£İæĻ¯": 3290,
      "æķ¦": 3291,
      "å¥³åŃ©": 3292,
      "çĭ¬çī¹çļĦ": 3293,
      "æģ©": 3294,
      "é¼ł": 3295,
      "çĶŁæ´»ä¸Ń": 3296,
      "è¿Ľåħ¥": 3297,
      "æŁĲäºĽ": 3298,
      "çĵľ": 3299,
      "åĪł": 3300,
      "ä½Ĩä»ĸ": 3301,
      "ç»ķ": 3302,
      "æľĥ": 3303,
      "ä¹ı": 3304,
      "æķ¢": 3305,
      "è³": 3306,
      "ä¹Łä¼ļ": 3307,
      "ç¨ĭåº¦": 3308,
      "åı¯åĨįçĶŁ": 3309,
      "çĪ½": 3310,
      "çľĭçľĭ": 3311,
      "çĭ¬ç«ĭ": 3312,
      "çļĦåĲ«ä¹ī": 3313,
      "åīįæĻ¯": 3314,
      "è¯ļ": 3315,
      "åĪ°è¾¾": 3316,
      "æĵįä½ľ": 3317,
      "åįĸ": 3318,
      "å£®": 3319,
      "ç»ŃåĨĻåı¤è¯Ĺ": 3320,
      "éģĵå¾·": 3321,
      "æ¡¥": 3322,
      "ä¸¾è¡Į": 3323,
      "é»ĺ": 3324,
      "éķľ": 3325,
      "å¦Ĥæŀľä½łåĸľæ¬¢": 3326,
      "åĦ¿ç«¥": 3327,
      "ä¹±": 3328,
      "æľīè®¸å¤ļ": 3329,
      "æĹłè®º": 3330,
      "ä¸įåŃĺåľ¨": 3331,
      "åı¥åŃĲä¸Ń": 3332,
      "æķ°åŃ¦é¢ĺ": 3333,
      "æĺ¯ä¸Ģä½į": 3334,
      "çģ¾å®³": 3335,
      "å¹´æĿ¥": 3336,
      "èļ": 3337,
      "å¹ķ": 3338,
      "è§Ī": 3339,
      "æĤ²": 3340,
      "åĵº": 3341,
      "çĭĹçĭĹ": 3342,
      "çĶŁæ´»æĸ¹å¼ı": 3343,
      "åĨĴéĻ©": 3344,
      "æ·ĭ": 3345,
      "åľ¨ä¸Ģèµ·": 3346,
      "æ³¡": 3347,
      "æĺ¯çĶ±": 3348,
      "çļĦè¯ĹæŃĮ": 3349,
      "è§ĦåĪĴ": 3350,
      "æĪĳæĺ¨å¤©": 3351,
      "æīĺ": 3352,
      "ä¸»ä¹ī": 3353,
      "éĩįå¤į": 3354,
      "æ²Ł": 3355,
      "æ²Ļæ»©": 3356,
      "çİ°ä»£æĸĩ": 3357,
      "çº·": 3358,
      "æĹĭ": 3359,
      "åĢ¾": 3360,
      "æ·¡": 3361,
      "åĵģç§į": 3362,
      "çŀ": 3363,
      "åĨĻä¸Ģç¯ĩ": 3364,
      "å£°éŁ³": 3365,
      "æĦīå¿«": 3366,
      "éĢ»": 3367,
      "æİ¥åıĹ": 3368,
      "èĤª": 3369,
      "ç¿»è¯ĳæĪĲæĸĩè¨Ģæĸĩ": 3370,
      "æĭ¼åĨĻéĶĻè¯¯": 3371,
      "æľŁéĹ´": 3372,
      "âĢĿãĢĤ<|": 3373,
      "èĦĤèĤª": 3374,
      "å¡ŀ": 3375,
      "æĸ¼": 3376,
      "ä½ĨæĪĳ": 3377,
      "åĮºåĿĹ": 3378,
      "è§ĦåĪĻ": 3379,
      "æĸĩä¸Ń": 3380,
      "æĺŁçĲĥ": 3381,
      "åİŁåı¥": 3382,
      "ä¿Ŀè¯ģ": 3383,
      "èµ¢": 3384,
      "è°ĵ": 3385,
      "èĸĦ": 3386,
      "æ¸¯": 3387,
      "æĳĦåħ¥": 3388,
      "æŁĲä¸ª": 3389,
      "è¿Ļå®¶é¤Ĳåİħ": 3390,
      "ç¿»è¯ĳæĪĲçİ°ä»£æĸĩ": 3391,
      "ĠâĢľ": 3392,
      "çľĭèµ·æĿ¥": 3393,
      "æ¸ħæ´ģ": 3394,
      "å¯¹çİ¯å¢ĥ": 3395,
      "å®ŀè·µ": 3396,
      "æĤ¬": 3397,
      "çļĦæ±": 3398,
      "ä¸ĢæĿ¯": 3399,
      "æ¨¡ä»¿": 3400,
      "ä¹ĭåĲİ": 3401,
      "æĺ¥å¤©": 3402,
      "çĶµè¯Ŀ": 3403,
      "å±ĭ": 3404,
      "å²¸": 3405,
      "è¹": 3406,
      "ä¸Ģæ¬¾": 3407,
      "æ¼Ĥäº®": 3408,
      "æľīæ²¡æľī": 3409,
      "å¦Ĥä¸ĭ": 3410,
      "ç¾Ĭ": 3411,
      "åı¹": 3412,
      "åľ¨ä¸Ģä¸ª": 3413,
      "å¼ºè°ĥäºĨ": 3414,
      "âĢĶâĢĶ": 3415,
      "åł¡": 3416,
      "é¤Ĳé¦Ĩ": 3417,
      "åŀĥåľ¾åĪĨç±»": 3418,
      "çļĦé£İéĻ©": 3419,
      "æ°§åĮĸ": 3420,
      "ç¥ŀç»ıç½ĳç»ľ": 3421,
      "è¿ŀæİ¥": 3422,
      "å§ĵ": 3423,
      "æĻºèĥ½å®¶å±ħ": 3424,
      "èį£": 3425,
      "ä¹Łå¾Ī": 3426,
      "è§¦": 3427,
      "åĴĮåħ¶ä»ĸ": 3428,
      "èħ¿": 3429,
      "åıįä¹īè¯į": 3430,
      "èĭ±æĸĩ": 3431,
      "ç»ĻæĪĳä¸Ģä¸ª": 3432,
      "æŀĿ": 3433,
      "ç¡¬": 3434,
      "æĬ«èĲ¨": 3435,
      "ä¸Ģå¤©": 3436,
      "éĩĮæľī": 3437,
      "åº¦åģĩ": 3438,
      "è§£éĩĬä¸Ģä¸ĭ": 3439,
      "æĤł": 3440,
      "èĽĭçĻ½è´¨": 3441,
      "å±±å³°": 3442,
      "ç´«": 3443,
      "å°ıçĭĹ": 3444,
      "ç¬ĳè¯Ŀ": 3445,
      "æĹ¨åľ¨": 3446,
      "å¨±ä¹Ĳ": 3447,
      "çĸ«èĭĹ": 3448,
      "å¹´é¾Ħ": 3449,
      "æī¹": 3450,
      "Ġå¥½çļĦ": 3451,
      "çļĦæĮĳæĪĺ": 3452,
      "Ġ=": 3453,
      "çľĭåĪ°äºĨ": 3454,
      "çĽ¸å¯¹": 3455,
      "è¡¨éĿ¢": 3456,
      "200": 3457,
      "èĢĹ": 3458,
      "è¯Ŀé¢ĺ": 3459,
      "æŁĶè½¯": 3460,
      "æĹ¶éĹ´åĴĮ": 3461,
      "åĵºä¹³": 3462,
      "éĢ»è¾ĳ": 3463,
      "èĥ½éĩı": 3464,
      "ï¼ļ\"": 3465,
      "åĽŀçŃĶéĹ®é¢ĺ": 3466,
      "åıªæĺ¯": 3467,
      "éĹª": 3468,
      "æ¯ıä¸ªäººéĥ½": 3469,
      "åİ¿": 3470,
      "ä¸ļåĬ¡": 3471,
      "ä¸Ģåı¥": 3472,
      "æµªæ¼«": 3473,
      "éĢĤéĩı": 3474,
      "é¡¶": 3475,
      "ç¨³å®ļ": 3476,
      "æĪ´": 3477,
      "èĢĥè¯ķ": 3478,
      "çļĦèĥ½åĬĽ": 3479,
      "é¡ºåºı": 3480,
      "åı¯ä»¥ä½¿çĶ¨": 3481,
      "éĩĮçļĦ": 3482,
      "éŁµ": 3483,
      "çģµæĦŁ": 3484,
      "ä¸Ģä¸ĭè¿Ļç¯ĩæĸĩç«ł": 3485,
      "æ¢ħ": 3486,
      "åĮºåĿĹéĵ¾": 3487,
      "å°ıæĺİæīĭ": 3488,
      "æľĢæĸ°çļĦ": 3489,
      "ä¹Ķ": 3490,
      "æııè¿°äºĨ": 3491,
      "è¿ħ": 3492,
      "ä»¥ä¸ĭæ®µèĲ½": 3493,
      "å»ºè®¾": 3494,
      "éĢĤå½ĵçļĦ": 3495,
      "åĲĥäºĨ": 3496,
      "å¤ļçļĦ": 3497,
      "on": 3498,
      "æİĮæı¡": 3499,
      "ä¼ĳæģ¯": 3500,
      "äºĭçī©": 3501,
      "å¹¶æ²¡æľī": 3502,
      "çĶµåŃĲéĤ®ä»¶": 3503,
      "çķª": 3504,
      "å¿§": 3505,
      "ãĢĤ\"<|": 3506,
      "å®¤æ°Ķä½ĵ": 3507,
      "éľľ": 3508,
      "åĵģè´¨": 3509,
      "å®£å¸ĥ": 3510,
      "çļĦä¸»è¦ģåĨħå®¹": 3511,
      "çļĦåİŁåĽł": 3512,
      "å°½åĬĽ": 3513,
      "Ġåľ¨": 3514,
      "è¯Ħä¼°": 3515,
      "æĶ¹æŃ£": 3516,
      "å°¤åħ¶": 3517,
      "åº¦åĴĮ": 3518,
      "éĽĦ": 3519,
      "åĮĸåŃ¦": 3520,
      "çļĦæ¼": 3521,
      "ä¸ºä½ł": 3522,
      "åĳ¨åĽ´": 3523,
      "çļĦå¤©æ°Ķé¢ĦæĬ¥": 3524,
      "æª": 3525,
      "æ¯Ķåĸ»": 3526,
      "éĿ¢å¯¹": 3527,
      "åĴĮæĸĩåĮĸ": 3528,
      "åĬŀåħ¬": 3529,
      "æĹ¶æľŁ": 3530,
      "æİ¥ä¸ĭæĿ¥": 3531,
      "äºĨè®¸å¤ļ": 3532,
      "æĺ¯ä»Ģä¹ĪæĦıæĢĿ": 3533,
      "é¢Ħç®Ĺ": 3534,
      "è¿Ļé¡¹": 3535,
      "éľĢè¦ģæ³¨æĦı": 3536,
      "ä½ľä¸ºä¸Ģä¸ª": 3537,
      "èĬ±åĽŃ": 3538,
      "çļĦè®¾è®¡": 3539,
      "ãĢĤ'": 3540,
      "æĦŁåħ´è¶£": 3541,
      "èī²å½©": 3542,
      "çĽ¸äºĴ": 3543,
      "å¹½": 3544,
      "è¯¢éĹ®": 3545,
      "æ¬§æ´²": 3546,
      "è´´": 3547,
      "è¯Ńåı¥": 3548,
      "å®ŀéªĮ": 3549,
      "æĪĳå°Ĩ": 3550,
      "æĶ¹ä¸º": 3551,
      "åĪłéĻ¤": 3552,
      "åĶ¯": 3553,
      "åĲ¬èµ·æĿ¥": 3554,
      "å®£ä¼ł": 3555,
      "äºĶä¸ª": 3556,
      "ä½łè®¤ä¸º": 3557,
      "çĤ¸": 3558,
      "è¯Ńæ°Ķ": 3559,
      "èķ´åĲ«": 3560,
      "æł¹æį®ä»¥ä¸ĭæĸĩæľ¬": 3561,
      "æĭĽ": 3562,
      "æŁ¥çľĭ": 3563,
      "åı¯åĨįçĶŁèĥ½æºĲ": 3564,
      "ç¾İçļĦ": 3565,
      "ä½¿åħ¶æĽ´åĬłç®Ģæ´ģæĺİäºĨ": 3566,
      "ä¸»äºº": 3567,
      "çĶ¨çļĦ": 3568,
      "ç¬¬ä¸ī": 3569,
      "AIè¯Ńè¨Ģæ¨¡åŀĭ": 3570,
      "èĦı": 3571,
      "èĻ«": 3572,
      "çĶŁæĪĲä¸Ģé¦ĸ": 3573,
      "è¡¨æ¼Ķ": 3574,
      "åĴª": 3575,
      "æ¡£": 3576,
      "è§Ĥä¼Ĺ": 3577,
      "æĢĿç»´": 3578,
      "ä¸įåŃĺåľ¨å®ŀä½ĵ": 3579,
      "åĬłä¸Ĭ": 3580,
      "åŁĥ": 3581,
      "éĶĻåĪ«": 3582,
      "æ³¨éĩį": 3583,
      "å¤§èĩªçĦ¶": 3584,
      "æĸĩæľ¬çºłéĶĻ": 3585,
      "éĶĻåĪ«åŃĹ": 3586,
      "æķ°æį®éĽĨ": 3587,
      "çļĦæ¸¸": 3588,
      "éļĶ": 3589,
      "çĥŃéĹ¨": 3590,
      "çĬ¹": 3591,
      "å¯¹æĸĩæľ¬éĶĻè¯¯": 3592,
      "å¯¹æĸĩæľ¬éĶĻè¯¯è¿Ľè¡Į": 3593,
      "æĸĩç«łä¸ŃæıĲåĪ°": 3594,
      "ä»¥ä¸ĭæĺ¯ä¸Ģéģĵ": 3595,
      "çĪ¬": 3596,
      "ä½łè§īå¾Ĺ": 3597,
      "è½¬æį¢ä¸º": 3598,
      "çī¹èī²": 3599,
      "äº¤æĺĵ": 3600,
      "éģŃ": 3601,
      "ç¾İæĻ¯": 3602,
      "è§Ħå¾ĭ": 3603,
      "çĽŁ": 3604,
      "è¿Ľè¡ĮåĪĨç±»": 3605,
      "æĻĴ": 3606,
      "ç»ĦåĲĪ": 3607,
      "è¯¸": 3608,
      "åĬ©æīĭ": 3609,
      "å®ŀä½ĵè¯ĨåĪ«": 3610,
      "åľ¨å®¶éĩĮ": 3611,
      "é¢Ĩå¯¼": 3612,
      "çĥ¹": 3613,
      "æł·çļĦ": 3614,
      "å°ıåŃ¦æķ°åŃ¦é¢ĺ": 3615,
      "çļĦæİªæĸ½": 3616,
      "èĢģå¸Ī": 3617,
      "åī§æĥħ": 3618,
      "çī©ä½ĵ": 3619,
      "æį·": 3620,
      "åħļ": 3621,
      "ä»¥ä¸ĭæĺ¯ä¸Ģéģĵå°ıåŃ¦æķ°åŃ¦é¢ĺ": 3622,
      "å¾ĹåĪ°äºĨ": 3623,
      "æ®Ĭ": 3624,
      "åĩºäºĨ": 3625,
      "è¿Ł": 3626,
      "åİŁæĸĩ": 3627,
      "çĶ²": 3628,
      "å½¼": 3629,
      "åºĶè¯¥æĺ¯": 3630,
      "åĨĻçļĦ": 3631,
      "å®ŀæĹ¶": 3632,
      "æİĴåºı": 3633,
      "èĻİ": 3634,
      "åĸľæ¬¢åĲĥ": 3635,
      "å¿ł": 3636,
      "é«ĺåº¦": 3637,
      "ä¸Ģé¡¹": 3638,
      "æłĩåĩĨ": 3639,
      "å®¡": 3640,
      "èĮĦ": 3641,
      "æĪĺäºī": 3642,
      "æĽ¿æį¢ä¸º": 3643,
      "ä¸ŃçļĦåºĶçĶ¨": 3644,
      "çĨĬçĮ«": 3645,
      "ç¦ģ": 3646,
      "çłĶåıĳ": 3647,
      "ä»Ĭå¤©å¤©æ°Ķ": 3648,
      "æĪĳä»Ĭå¤©": 3649,
      "æĽ´åĩĨç¡®": 3650,
      "æİ¨èįĲä¸ĢäºĽ": 3651,
      "åį«çĶŁ": 3652,
      "åĵºä¹³åĬ¨çī©": 3653,
      "éĤ£äºĽ": 3654,
      "çĲ´": 3655,
      "åį§": 3656,
      "çĩķ": 3657,
      "åİ¨": 3658,
      "çļĦæĦŁè§ī": 3659,
      "æķı": 3660,
      "èı²": 3661,
      "åįł": 3662,
      "èĦ¸": 3663,
      "çļĦæİ¨": 3664,
      "åĨĻè¯Ĺ": 3665,
      "å±ķçİ°": 3666,
      "çĿĽ": 3667,
      "åĬĽçļĦ": 3668,
      "æŃ£å¼ı": 3669,
      "åīįæıĲ": 3670,
      "æĶ¯éĵħç¬Ķ": 3671,
      "æµªè´¹": 3672,
      "ç¤¾åĮº": 3673,
      "çļĦçłĶç©¶": 3674,
      "çļĦæķĪ": 3675,
      "çĮ«åĴª": 3676,
      "ç«¹": 3677,
      "è£Ļ": 3678,
      "çļĦæĻºèĥ½": 3679,
      "åŃĲçļĦ": 3680,
      "æĹ¶åħī": 3681,
      "éĺ¶": 3682,
      "ä¼¦æķ¦": 3683,
      "å¥³æĢ§": 3684,
      "ï¼īãĢĤ": 3685,
      "ä¸Ģåľº": 3686,
      "åıĺå¾ĹæĽ´åĬł": 3687,
      "åĵģå°Ŀ": 3688,
      "ä¾¿åĪ©": 3689,
      "ï¼ļ'": 3690,
      "è¯Ńæ³ķåĴĮ": 3691,
      "å¤§çº¦": 3692,
      "èªī": 3693,
      "æ¬£èµı": 3694,
      "ä½łå¥½": 3695,
      "ä¼¯": 3696,
      "è¡¬": 3697,
      "ç£¨": 3698,
      "æī¬": 3699,
      "ä¸įçŁ¥éģĵ": 3700,
      "å¸¸è§ģçļĦ": 3701,
      "çļĦæ¬": 3702,
      "é¢Ĺç³ĸæŀľ": 3703,
      "åİŁå§ĭæĸĩæľ¬": 3704,
      "åĲĪéĢĤçļĦ": 3705,
      "æµ·è¾¹": 3706,
      "äºĪ": 3707,
      "è£ģ": 3708,
      "ãĢģâĢľ": 3709,
      "çĻ¼": 3710,
      "é¸£": 3711,
      "è¿Ļæĺ¯ä¸Ģç¯ĩ": 3712,
      "æĸĩæ¡ĪçĶŁæĪĲ": 3713,
      "åľ¨äºİ": 3714,
      "ç»ĵè®º": 3715,
      "è¿ĺéľĢè¦ģ": 3716,
      "éĢĥ": 3717,
      "åĵ²": 3718,
      "çľĭæ³ķ": 3719,
      "çļĦæ¸©": 3720,
      "æīĵå¼Ģ": 3721,
      "éļ¾ä»¥": 3722,
      "ä»Ļ": 3723,
      "çĲĨè®º": 3724,
      "éĨī": 3725,
      "è®¡ç®Ĺæľºç§ĳåŃ¦": 3726,
      "æľīä¸ĢäºĽ": 3727,
      "æĳĩ": 3728,
      "èĦī": 3729,
      "éħĴåºĹ": 3730,
      "çļĦæĥ³æ³ķ": 3731,
      "è¦ģçĤ¹": 3732,
      "ä¼Ł": 3733,
      "æĶ¾åľ¨": 3734,
      "å°º": 3735,
      "GPTæ¨¡åŀĭ": 3736,
      "ç»ĻæĪĳä¸ĢäºĽ": 3737,
      "æ¶µ": 3738,
      "ä¸Ģæľ¬": 3739,
      "å¦ĤæŃ¤": 3740,
      "æıĲéĨĴ": 3741,
      "çĿ£": 3742,
      "æĪĳåİ»": 3743,
      "å¹³éĿ¢": 3744,
      "çĽĴ": 3745,
      "å¯¹äººç±»": 3746,
      "å¤®": 3747,
      "èĬ³": 3748,
      "11": 3749,
      "æĦŁåıĹåĪ°": 3750,
      "æĢķ": 3751,
      "å¯Ĥ": 3752,
      "å¾Īæľī": 3753,
      "åĽ¾ä¹¦": 3754,
      "åĨľä¸ļ": 3755,
      "æĮĩå®ļ": 3756,
      "æĭľ": 3757,
      "åĴĮæ²»çĸĹ": 3758,
      "èİ·å¾ĹäºĨ": 3759,
      "ä¿®æŃ£": 3760,
      "çªģçĦ¶": 3761,
      "è´ŁéĿ¢å½±åĵį": 3762,
      "ä¸ºä¸Ģä¸ª": 3763,
      "ä¸Ģä»¶": 3764,
      "æł¹æį®æłĩé¢ĺ": 3765,
      "çĶĺ": 3766,
      "å°½åı¯èĥ½": 3767,
      "çĳŀ": 3768,
      "å·¨å¤§": 3769,
      "èįīèİĵ": 3770,
      "è¯·ä»İ": 3771,
      "æ¶²": 3772,
      "éĿŀå¸¸æĦŁè°¢": 3773,
      "çļĦåĲįç§°": 3774,
      "åıĬåħ¶": 3775,
      "éģµ": 3776,
      "é£ŁæĿĲ": 3777,
      "åĩ¡": 3778,
      "è¿Ļæ¬¡": 3779,
      "è®¿éĹ®": 3780,
      "æľīçĤ¹": 3781,
      "ä¼łæĴŃ": 3782,
      "ä¿®èº«": 3783,
      "èĤº": 3784,
      "å¢Ļ": 3785,
      "åĮ»éĻ¢": 3786,
      "æĸ¹éĿ¢çļĦ": 3787,
      "æĸ°éĹ»æĸĩç«ł": 3788,
      "åĭķ": 3789,
      "æ¥ļ": 3790,
      "çİ°åľ¨è¯·ä½ł": 3791,
      "ä¿Ĺ": 3792,
      "åº¦è¿ĩ": 3793,
      "è¿ĶåĽŀ": 3794,
      "æľĢå¤§": 3795,
      "é²ģ": 3796,
      "æĭĤ": 3797,
      "èİ±": 3798,
      "çļĦæķ°éĩı": 3799,
      "ç¬¬ä¸Ģä¸ª": 3800,
      "æĭĶ": 3801,
      "æģĴ": 3802,
      "åĴĮæĮĳæĪĺ": 3803,
      "çīĪæľ¬": 3804,
      "ä¸ºä»¥ä¸ĭ": 3805,
      "æĽ°": 3806,
      "æĺ¯å¤ļå°ĳ": 3807,
      "æ»¡æĦı": 3808,
      "ç©Ĩ": 3809,
      "å½±åĥı": 3810,
      "æľĢéĩįè¦ģçļĦ": 3811,
      "æĶ¯ä»ĺ": 3812,
      "åıĹæ¬¢è¿İçļĦ": 3813,
      "åħ³éĶ®åŃĹ": 3814,
      "èĳ±": 3815,
      "æ·±åĳ¼åĲ¸": 3816,
      "äºĨå¾Īå¤ļ": 3817,
      "25": 3818,
      "çº¹": 3819,
      "çģŃ": 3820,
      "æİĴåĪĹ": 3821,
      "äº¦": 3822,
      "çļĦåħ·ä½ĵ": 3823,
      "å°ĺ": 3824,
      "è£ħé¥°": 3825,
      "è¸ª": 3826,
      "å°ıæĺİåĴĮ": 3827,
      "ä¸ĭéĿ¢çļĦåı¥åŃĲ": 3828,
      "æĻ´æľĹ": 3829,
      "åľ¨æľªæĿ¥": 3830,
      "å¼ºçĥĪ": 3831,
      "éĢĴ": 3832,
      "çļĦä½¿çĶ¨": 3833,
      "éĿ¢ç§¯": 3834,
      "èĳ¡èĲ": 3835,
      "èĳ¡èĲĦ": 3836,
      "ç¼ĸè¾ĳä»¥ä¸ĭåı¥åŃĲ": 3837,
      "çļĦæ¼Ķ": 3838,
      "ç¼ºä¹ı": 3839,
      "å½ĵåľ°çļĦ": 3840,
      "å°±ä¸ļ": 3841,
      "ä»¥ç¡®ä¿Ŀ": 3842,
      "æĸĩåĮĸåĴĮ": 3843,
      "äººåľ¨": 3844,
      "çļĦä¸Ģç§į": 3845,
      "åĳĪçİ°": 3846,
      "åĵªç§į": 3847,
      "å¤ľæĻļ": 3848,
      "å¼Ł": 3849,
      "æıĲä¾ĽçļĦ": 3850,
      "èĢį": 3851,
      "ç´§å¼ł": 3852,
      "çĶļèĩ³": 3853,
      "ç¾½": 3854,
      "é»ĳæ´ŀ": 3855,
      "æĲº": 3856,
      "éĻ¤äºĨ": 3857,
      "çľ¼çĿĽ": 3858,
      "æľĢå¤§çļĦ": 3859,
      "æ¡ĥ": 3860,
      "èĩªä¸»": 3861,
      "è·¯ä¸Ĭ": 3862,
      "è§Ħæ¨¡": 3863,
      "åıĺæĪĲ": 3864,
      "èĤ´": 3865,
      "çī©ç§į": 3866,
      "çļĦæł¸": 3867,
      "ç¼ºçĤ¹": 3868,
      "åįģå¹´": 3869,
      "éŁ©çīĪ": 3870,
      "æĢ§èĥ½": 3871,
      "å¾Ĺåĩº": 3872,
      "æĥħæĦŁåĪĨæŀĲ": 3873,
      "å¯Ĩçłģ": 3874,
      "æĦīæĤ¦": 3875,
      "éĢĹ": 3876,
      "çĸĳéĹ®": 3877,
      "çłĶç©¶è¡¨æĺİ": 3878,
      "åıĬæĹ¶": 3879,
      "åı¯ä»¥æıĲé«ĺ": 3880,
      "è¿Ļä¸¤ä¸ª": 3881,
      "è§£åĨ³éĹ®é¢ĺ": 3882,
      "è®°å¿Ĩ": 3883,
      "å¤§æķ°æį®": 3884,
      "âĢĿãĢģâĢľ": 3885,
      "å®ŀæĸ½": 3886,
      "èľĤ": 3887,
      "çĽ®çļĦ": 3888,
      "åīª": 3889,
      "æĻºæħ§": 3890,
      "åĽ¾åĥıè¯ĨåĪ«": 3891,
      "å¼Ģå¤´": 3892,
      "ä¸Ģæ®µæĸĩåŃĹ": 3893,
      "è§Ĥçľĭ": 3894,
      "ç¨İ": 3895,
      "åĿĢ": 3896,
      "èıľåĵģ": 3897,
      "äºĨä¸Ģç§į": 3898,
      "ä½¿åħ¶æĽ´åĬłç®Ģæ´ģ": 3899,
      "è¯ķè¯ķ": 3900,
      "ç»ĻäºĨ": 3901,
      "åĪĨä¸º": 3902,
      "æĽ¼": 3903,
      "è®¤è¯Ĩ": 3904,
      "ĠæĪĳ": 3905,
      "éķ¿æľŁ": 3906,
      "çļĦæĢ§": 3907,
      "éĺµ": 3908,
      "åĢ¼å¾Ĺä¸Ģ": 3909,
      "ç»Łè®¡": 3910,
      "èĥ¡": 3911,
      "åıĤè§Ĥ": 3912,
      "éģĩåĪ°": 3913,
      "æĿ¥æºĲ": 3914,
      "éĢĬ": 3915,
      "å¸ħ": 3916,
      "æĺ¨æĻļ": 3917,
      "åªļ": 3918,
      "è®¡ç®Ĺæľºè§Ĩè§ī": 3919,
      "å®Ŀå®Ŀ": 3920,
      "åĪļåĪļ": 3921,
      "ç¼ĸåĨĻä¸Ģä¸ª": 3922,
      "è¿ĩåº¦": 3923,
      "æĽ´æŃ£": 3924,
      "Ġåħ¶": 3925,
      "çļĦæıĲ": 3926,
      "èĤ¡ç¥¨": 3927,
      "ãĢĤâĢľ": 3928,
      "äºĴåĬ¨": 3929,
      "åĪĹä¸¾": 3930,
      "çļĦæĮĩ": 3931,
      "æľĢè¿ĳçļĦ": 3932,
      "æ··åĲĪ": 3933,
      "æķ¬": 3934,
      "æĸ°æ¬¾": 3935,
      "å®½æĿ¾": 3936,
      "å¾Īå¤§": 3937,
      "åħ¬éĩĮ": 3938,
      "ĽåĽ´": 3939,
      "æ¸©å®¤æ°Ķä½ĵ": 3940,
      "éĥ¨éĹ¨": 3941,
      "æĺİæĺ¾": 3942,
      "ä¸ŃæĢ§": 3943,
      "åĨ³äºİ": 3944,
      "å¹¶è¾ĵåĩº": 3945,
      "å¼Ģå¿ĥ": 3946,
      "æĺ¯åħ³äºİ": 3947,
      "é½Ĳ": 3948,
      "åŃ¦ä¹łç¼ĸç¨ĭ": 3949,
      "åıĸåĨ³äºİ": 3950,
      "ç§°ä¸º": 3951,
      "è¿Ļæ®µæĸĩåŃĹ": 3952,
      "çº½çº¦å¸Ĥ": 3953,
      "æĸĩæĺİ": 3954,
      "ç§»åĬ¨": 3955,
      "æĦıåĳ³": 3956,
      "åīĤ": 3957,
      "ä¸ŃæıĲåıĸåĩº": 3958,
      "åıĸæ¶Ī": 3959,
      "çĶ·åŃ©": 3960,
      "è¿Ľå±ķ": 3961,
      "èĢĮä¸įæĺ¯": 3962,
      "æĮĤ": 3963,
      "é£ŀè¡Į": 3964,
      "åĲİçļĦåı¥åŃĲ": 3965,
      "åĲ«æľī": 3966,
      "æıĲç¤º": 3967,
      "è¿ĺæľīåħ¶ä»ĸ": 3968,
      "åħĶ": 3969,
      "å°Ĭéĩį": 3970,
      "æıĲåĩºäºĨ": 3971,
      "çļĦåħ³éĶ®ä¿¡æģ¯": 3972,
      "åĩºè¡Į": 3973,
      "ä¸ĭéĻį": 3974,
      "åħħåĪĨ": 3975,
      "æįķ": 3976,
      "çļĦæĦıä¹ī": 3977,
      "çİ¯ä¿ĿæĦıè¯Ĩ": 3978,
      "çī¹æ®Ĭ": 3979,
      "å¾Ĵ": 3980,
      "æĸ°åŀĭ": 3981,
      "ä¸¹": 3982,
      "æĢİä¹Īæł·": 3983,
      "èĤĸ": 3984,
      "åı¯ä»¥èĢĥèĻĳ": 3985,
      "å¦ĩ": 3986,
      "çīĽä»Ķ": 3987,
      "äººå·¥æĻºèĥ½çļĦåºĶçĶ¨": 3988,
      "åķĨåºĹ": 3989,
      "é»ĳèī²": 3990,
      "æĸ°éĹ»æłĩé¢ĺ": 3991,
      "16": 3992,
      "å¢¨": 3993,
      "æĻĤ": 3994,
      "çļĦåĲįåŃĹ": 3995,
      "å¸Ń": 3996,
      "å¸½": 3997,
      "åĮºåŁŁ": 3998,
      "çļĦçİ¯å¢ĥ": 3999,
      "æĺ¯æĪĳ": 4000,
      "åħħæ»¡äºĨ": 4001,
      "çĭĤ": 4002,
      "åĪºæ¿Ģ": 4003,
      "åıĳæĺİ": 4004,
      "è´¢åĬ¡": 4005,
      "èī¾": 4006,
      "åŁºåĽł": 4007,
      "è¯»ä¹¦": 4008,
      "èĩªçĦ¶çģ¾å®³": 4009,
      "åı¯ä»¥å°Ŀè¯ķ": 4010,
      "åĴĮæľĭåıĭ": 4011,
      "è¾ŀ": 4012,
      "äººä»¬çļĦ": 4013,
      "åį°åº¦": 4014,
      "ä½ľå®¶": 4015,
      "ä½łæľīä»Ģä¹Ī": 4016,
      "æ·ĩ": 4017,
      "åĵĪåĪ©": 4018,
      "å¤ªéĺ³èĥ½": 4019,
      "é»Ħèī²": 4020,
      "è®¾ç½®": 4021,
      "ç»¼": 4022,
      "æĳĨ": 4023,
      "çĻ¾æĲŃ": 4024,
      "èµ¢å¾Ĺ": 4025,
      "é¬": 4026,
      "éŃĶæ³ķ": 4027,
      "ä¸ģ": 4028,
      "çģ°": 4029,
      "é¥ª": 4030,
      "çŃĶæ¡Īæĺ¯": 4031,
      "å¤¹": 4032,
      "æĦģ": 4033,
      "ç®ĢåĮĸ": 4034,
      "æľīçļĦ": 4035,
      "çĥ¹é¥ª": 4036,
      "æĦŁåĪ°éĿŀå¸¸": 4037,
      "ĠĠ": 4038,
      "åľ°åĲį": 4039,
      "æĪĳæİ¨èįĲ": 4040,
      "è¾ħåĬ©": 4041,
      "ä¼ĺåĬ¿": 4042,
      "å¸¸å¸¸": 4043,
      "åİ»å¹´": 4044,
      "ä¹°äºĨä¸Ģ": 4045,
      "çķªèĮĦ": 4046,
      "çĮİ": 4047,
      "éĩĮéĿ¢": 4048,
      "èį·": 4049,
      "ä¿Ŀæļĸ": 4050,
      "ç»´æĬ¤": 4051,
      "çİ©èĢį": 4052,
      "ä¸Ģéĥ¨": 4053,
      "ä¸ŃåĽ½çļĦ": 4054,
      "å®¤åĨħ": 4055,
      "ä¸²": 4056,
      "ä¸ºç»Ļå®ļçļĦ": 4057,
      "æĳĦæ°ı": 4058,
      "è¶³å¤ŁçļĦ": 4059,
      "è´¦": 4060,
      "çľŁå®ŀ": 4061,
      "æŃ»äº¡": 4062,
      "Ġ3": 4063,
      "æ²ŁéĢļ": 4064,
      "èģļä¼ļ": 4065,
      "åĨ°æ·ĩ": 4066,
      "è¦Ĩ": 4067,
      "è±ª": 4068,
      "å¥½å¤Ħ": 4069,
      "åĨ°æ·ĩæ·ĭ": 4070,
      "è¯·å¸®æĪĳ": 4071,
      "æĻºèĥ½åĮĸ": 4072,
      "æĴ°": 4073,
      "ç®Ģæĺİ": 4074,
      "ç±»åŀĭçļĦ": 4075,
      "ä¹Łæľī": 4076,
      "ä¸Ģå¹´": 4077,
      "æĳ©": 4078,
      "åħ´å¥ĭ": 4079,
      "å¼±": 4080,
      "æµ·å¹³éĿ¢": 4081,
      "åį±éĻ©": 4082,
      "åħ¨éĿ¢": 4083,
      "èĥ½ä¸įèĥ½": 4084,
      "åĪĨåĪ°": 4085,
      "åıĳå±ķçļĦ": 4086,
      "æ®ĭ": 4087,
      "æİĪ": 4088,
      "èħĲ": 4089,
      "éģĩåĪ°äºĨ": 4090,
      "è½¬åĮĸ": 4091,
      "ä¸ªæĢ§åĮĸ": 4092,
      "å¾Īå¥½çļĦ": 4093,
      "åı¯ä»¥è®©": 4094,
      "æĢİæł·": 4095,
      "å·¥èīº": 4096,
      "çļĦæķĻ": 4097,
      "çļĦæł¸å¿ĥ": 4098,
      "åĪĨæŀĲåĴĮ": 4099,
      "æĪĲå°±": 4100,
      "èĢħçļĦ": 4101,
      "é¢ĨåŁŁçļĦ": 4102,
      "14": 4103,
      "çŃīéĹ®é¢ĺ": 4104,
      "æīĢéľĢ": 4105,
      "âĦ": 4106,
      "é£Łè°±": 4107,
      "ç¥ĸ": 4108,
      "é¸Ń": 4109,
      "å¤ıæĹ¥": 4110,
      "æĦıåĳ³çĿĢ": 4111,
      "å¿½": 4112,
      "çİ©åħ·": 4113,
      "æĸĩç«łåĨħå®¹": 4114,
      "âĦĥ": 4115,
      "èĬĿ": 4116,
      "è·¯çº¿": 4117,
      "åĭĴ": 4118,
      "æĸ°äº§åĵģ": 4119,
      "éķ¿çļĦ": 4120,
      "çĶŁç´ł": 4121,
      "ä¸ĢåĢĭ": 4122,
      "æŀģç«¯": 4123,
      "çģ«è½¦": 4124,
      "äººåı£": 4125,
      "éĢĹåı·": 4126,
      "åĩºéĹ¨": 4127,
      "äººå·¥æĻºèĥ½åľ¨åĮ»çĸĹé¢ĨåŁŁ": 4128,
      "å¦Ĥæŀľä½łæĥ³": 4129,
      "ç§¯æŀģçļĦ": 4130,
      "æŃ¥éª¤": 4131,
      "é¢Ħè®¡": 4132,
      "ħåĬĽ": 4133,
      "å°±åı¯ä»¥": 4134,
      "æĿĲè´¨": 4135,
      "éĿŀå¸¸éĩįè¦ģ": 4136,
      "æĪĳä»¬å°Ĩ": 4137,
      "éĩįå¤§": 4138,
      "æĪ·å¤ĸæ´»åĬ¨": 4139,
      "èıľåįķ": 4140,
      "æĺ¯ä¸ª": 4141,
      "çİ¯ä¿ĿçļĦ": 4142,
      "é£ŁçĶ¨": 4143,
      "è¡¨æł¼": 4144,
      "åķĨåĬ¡": 4145,
      "æ£Ģæµĭ": 4146,
      "æ³Ĭ": 4147,
      "åŁİå¸ĤçļĦ": 4148,
      "éĩįè§Ĩ": 4149,
      "çī©çĲĨåŃ¦": 4150,
      "ä¹Į": 4151,
      "ç¦»å¼Ģ": 4152,
      "é«ĺçļĦå±±å³°": 4153,
      "æ¯ıä¸ªæľĭåıĭ": 4154,
      "ï¼īï¼Į": 4155,
      "éĻ¶": 4156,
      "çļĦæĢ»ç»ĵ": 4157,
      "åĴĮåºĶçĶ¨": 4158,
      "é£İåĲ¹": 4159,
      "åħ·å¤ĩ": 4160,
      "åĽłä¸ºæĪĳ": 4161,
      "è¿Ļç¯ĩæĸĩç«łä¸»è¦ģ": 4162,
      "è¿Ŀ": 4163,
      "ä¸Ģå¼ł": 4164,
      "æłĩçŃ¾": 4165,
      "åĴĮç¤¾ä¼ļ": 4166,
      "åħįçĸ«": 4167,
      "èĢĢ": 4168,
      "çŃīå¾ħ": 4169,
      "åı£è¯Ń": 4170,
      "éĢıæ°Ķ": 4171,
      "æĹłéĻĲ": 4172,
      "äººå£«": 4173,
      "èµĸ": 4174,
      "è¢«è®¤ä¸º": 4175,
      "æ³ķè§Ħ": 4176,
      "æĺİåªļ": 4177,
      "èį¡": 4178,
      "æĪĲç»©": 4179,
      "éĺĶ": 4180,
      "è¿ħéĢŁ": 4181,
      "ç¤ºä¾ĭ": 4182,
      "é¢Ħè®¢": 4183,
      "ç§ĭåŃ£": 4184,
      "âĢĿ<|": 4185,
      "åĽ¾ä¹¦é¦Ĩ": 4186,
      "çĽ¸åħ³ä¿¡æģ¯": 4187,
      "ä¼ĺçĤ¹": 4188,
      "æĪĲä¸ºäºĨ": 4189,
      "æĽ¾ç»ı": 4190,
      "æ³ī": 4191,
      "å·¨å¤§çļĦ": 4192,
      "ä¸įå¥½": 4193,
      "ä¸»è¯Ń": 4194,
      "åĽŀçŃĶè¿Ļä¸ªéĹ®é¢ĺ": 4195,
      "æĵİ": 4196,
      "è²Į": 4197,
      "è¿Ļæ®µè¯Ŀ": 4198,
      "è¿ĳå¹´æĿ¥": 4199,
      "æĽ¿ä»£": 4200,
      "è·¨": 4201,
      "ç½ĳä¸Ĭ": 4202,
      "13": 4203,
      "è¿Ľè¡ĮäºĨ": 4204,
      "è¯·ä¸ºæĪĳ": 4205,
      "éĹ®é¢ĺçļĦ": 4206,
      "é£ŀæľº": 4207,
      "å¹¿æ³ĽåºĶçĶ¨": 4208,
      "ä¸§": 4209,
      "æĪĳä»¬çļĦçĶŁæ´»": 4210,
      "æĥ³æ³ķ": 4211,
      "åĵ²åŃ¦": 4212,
      "æ¸ħæĸ°": 4213,
      "åį³ä½¿": 4214,
      "æł¹æį®ç»Ļå®ļ": 4215,
      "è®²è¿°äºĨä¸Ģä¸ª": 4216,
      "åľ°ä¸Ĭ": 4217,
      "ä¸ªæ©ĻåŃĲ": 4218,
      "éĩİé¤Ĳ": 4219,
      "çĭĹçļĦ": 4220,
      "æ²Ļæĭī": 4221,
      "æĿ¨": 4222,
      "ä¸Ńæľī": 4223,
      "çļĦæ·": 4224,
      "åºĦ": 4225,
      "è´¸": 4226,
      "ä¸ĵæ³¨": 4227,
      "æĭĮ": 4228,
      "åħ¨åĽ½": 4229,
      "åħħè¶³": 4230,
      "çŁ¿": 4231,
      "åİ»åħ¬åĽŃ": 4232,
      "æĹłäºº": 4233,
      "ä¸°å¯ĮçļĦ": 4234,
      "ä¾µ": 4235,
      "èĮĥåĽ´åĨħ": 4236,
      "åĸľåī§": 4237,
      "å¸®åĬ©æĤ¨": 4238,
      "å¯¼æ¼Ķ": 4239,
      "äº§ä¸ļ": 4240,
      "åŃĲåĴĮ": 4241,
      "è®¯": 4242,
      "å¤§å°ı": 4243,
      "å°¼åħĭ": 4244,
      "å±ı": 4245,
      "è§Ĥå¯Ł": 4246,
      "åŃĻ": 4247,
      "åı¤èĢģ": 4248,
      "èģĶåĲĪ": 4249,
      "å¦¹": 4250,
      "17": 4251,
      "æĪĳæŃ£åľ¨": 4252,
      "AIæĬĢæľ¯": 4253,
      "çĥ¦": 4254,
      "æĳĺåıĸ": 4255,
      "å¸¦æĿ¥çļĦ": 4256,
      "ä½łä¼ļ": 4257,
      "åĢį": 4258,
      "è®¾æĸ½": 4259,
      "å®ŀçĶ¨": 4260,
      "è¿Ļç¯ĩæĸĩç«łçļĦä¸»è¦ģè§ĤçĤ¹": 4261,
      "çĭ®": 4262,
      "éĿŀå¸¸åĸľæ¬¢": 4263,
      "ä¸ľäº¬": 4264,
      "èĴ¸": 4265,
      "èĩªèº«": 4266,
      "ä¹ĭå¤Ħ": 4267,
      "æ¨¡æĭŁäººç±»": 4268,
      "æĤ¨åı¯ä»¥å°Ŀè¯ķ": 4269,
      "æľīçĽĬ": 4270,
      "å¤ķ": 4271,
      "çļĦæ²»": 4272,
      "åģıå¥½": 4273,
      "è¯¥æĸĩæľ¬": 4274,
      "å¥¥è¿Ĳ": 4275,
      "è¯ĦåĪĨ": 4276,
      "åĲįä¸º": 4277,
      "ç®ĢçŁŃçļĦ": 4278,
      "çĻ½èī²": 4279,
      "éĥ½åı¯ä»¥": 4280,
      "å¤ļæķ°": 4281,
      "æĢĸ": 4282,
      "åľ¨ç»Ļå®ļçļĦ": 4283,
      "æĹħæ¸¸æĻ¯çĤ¹": 4284,
      "çļĦæĥħç»ª": 4285,
      "çļĦæ¶": 4286,
      "å¿ĥèĦı": 4287,
      "èĥŀ": 4288,
      "åı¦ä¸Ģä¸ª": 4289,
      "åĭ¤": 4290,
      "hon": 4291,
      "èıľèĤ´": 4292,
      "å¼ķæĵİ": 4293,
      "çļĦæ¸¸æĪı": 4294,
      "èĴĤ": 4295,
      "ä¸»è§Ĵ": 4296,
      "åİŁçĲĨ": 4297,
      "çĽ´åĪ°": 4298,
      "é¡µ": 4299,
      "å¸®æĤ¨": 4300,
      "æĺ¯ä¸ĢåĲį": 4301,
      "ä½łèĥ½å¸®æĪĳ": 4302,
      "åľ¨ä¸ŃåĽ½": 4303,
      "çļĦæ¦Ĥå¿µ": 4304,
      "å®¿": 4305,
      "å¾·åĽ½": 4306,
      "æĿ¥è§£åĨ³": 4307,
      "æŁľ": 4308,
      "æºª": 4309,
      "ç»ĻæĤ¨": 4310,
      "äººå·¥æĻºèĥ½çļĦåıĳå±ķ": 4311,
      "ç»ĵæĿŁ": 4312,
      "èĴĻ": 4313,
      "æľīæķĪåľ°": 4314,
      "åħ¶ä¸ŃåĮħæĭ¬": 4315,
      "äººå¿ĥ": 4316,
      "å°±åĥı": 4317,
      "åĸľæ¬¢çļĦ": 4318,
      "æľªçŁ¥": 4319,
      "æĳĦæ°ıåº¦": 4320,
      "æĪĲåĪĨ": 4321,
      "æĢª": 4322,
      "çļĦä»»åĬ¡": 4323,
      "åľ¨åĵªéĩĮ": 4324,
      "çı¾": 4325,
      "ä»Ĭå¤©çļĦå¤©æ°Ķ": 4326,
      "è¯·æł¹æį®": 4327,
      "å°ıæĺİå®¶": 4328,
      "ä»°": 4329,
      "æī£": 4330,
      "ç²Ĵ": 4331,
      "çķĻä¸ĭ": 4332,
      "Ġ2": 4333,
      "ç¢³æİĴæĶ¾": 4334,
      "åıĤèĢĥ": 4335,
      "åĪĢ": 4336,
      "éķ¿æĹ¶éĹ´": 4337,
      "ä¸įè¶³": 4338,
      "çº¤": 4339,
      "èĮ¨": 4340,
      "ç¼ĸç¨ĭè¯Ńè¨Ģ": 4341,
      "å²©": 4342,
      "æł¹æį®èĩªå·±çļĦ": 4343,
      "éł": 4344,
      "éĺ²æŃ¢": 4345,
      "åģ¥åº·åĴĮ": 4346,
      "è§Ĵåº¦": 4347,
      "æłĩçĤ¹ç¬¦åı·": 4348,
      "èħ»": 4349,
      "åı¯éĿł": 4350,
      "åľ¨åħ¬åĽŃéĩĮ": 4351,
      "å±ħæ°ĳ": 4352,
      "çĶ·åŃĲ": 4353,
      "è´¯": 4354,
      "æ²¿": 4355,
      "è¯¥æĸĩç«ł": 4356,
      "ä¿ĿçķĻ": 4357,
      "åĮ¹": 4358,
      "æĹ¶åĪ»": 4359,
      "å¥Ķ": 4360,
      "çļĦæĳĦ": 4361,
      "500": 4362,
      "æııè¿°ä¸Ģä¸ĭ": 4363,
      "å½¢è±¡": 4364,
      "çļĦæŀ": 4365,
      "åİĤ": 4366,
      "èĬĤæĹ¥": 4367,
      "èĤ¯å®ļ": 4368,
      "éĩİçĶŁ": 4369,
      "æīĵç®Ĺ": 4370,
      "é²¸": 4371,
      "å¯¿åĳ½": 4372,
      "å°ıåįİ": 4373,
      "åĨħå¿ĥ": 4374,
      "å»ºè®®åĲĹ": 4375,
      "æ³¢çī¹": 4376,
      "æ³½": 4377,
      "è¿Ļåľº": 4378,
      "æĸ¯åĿ¦": 4379,
      "2021": 4380,
      "åĲ¬éŁ³ä¹Ĳ": 4381,
      "æĺ¯äººç±»": 4382,
      "å¹¶ç»Ļåĩº": 4383,
      "æĥħåĨµä¸ĭ": 4384,
      "çļĦæŃĮæĽ²": 4385,
      "åĲĦåľ°": 4386,
      "æī®": 4387,
      "æĮĳ": 4388,
      "åı£åı·": 4389,
      "çĶŁéķ¿": 4390,
      "çļĦåħ³éĶ®è¯į": 4391,
      "åŃ¦ä¼ļ": 4392,
      "ä¸ĭéĿ¢çļĦæĸĩæľ¬": 4393,
      "æģĭ": 4394,
      "90": 4395,
      "çĶµæ±ł": 4396,
      "è·ĥ": 4397,
      "çļĦæĽ": 4398,
      "æ´ª": 4399,
      "ä¸įå¤ª": 4400,
      "çĽĳç®¡": 4401,
      "æĽ´æĶ¹": 4402,
      "ä»¥æĿ¥": 4403,
      "è¦ģåİ»": 4404,
      "åĨĻä¸Ģé¦ĸ": 4405,
      "ä¸Ńå¤®": 4406,
      "èİİ": 4407,
      "çļĦæĦıæĢĿæĺ¯ä»Ģä¹Ī": 4408,
      "åĮĢ": 4409,
      "åľ°åĽ¾": 4410,
      "ä¸ĵå®¶": 4411,
      "æĽ´å¿«": 4412,
      "è¯¥åħ¬åı¸": 4413,
      "åĲ´": 4414,
      "å°½ç®¡ä»ĸ": 4415,
      "çļĦçĶŁæ´»æĸ¹å¼ı": 4416,
      "ç§Ł": 4417,
      "ä»ª": 4418,
      "ä»ĸäºº": 4419,
      "èĤł": 4420,
      "æĪĳä¸įèĥ½": 4421,
      "åİĺ": 4422,
      "ä½łåı¯ä»¥å°Ŀè¯ķ": 4423,
      "å§¿": 4424,
      "çļĦè¿ĲåĬ¨": 4425,
      "ç¢İ": 4426,
      "çıłç©Ĩ": 4427,
      "åĸľçĪ±": 4428,
      "çıłç©ĨæľĹ": 4429,
      "24": 4430,
      "åĨłåĨĽ": 4431,
      "çĤİçĥŃ": 4432,
      "äºĭæķħ": 4433,
      "å½ĵä½ł": 4434,
      "å¤§éĩıçļĦ": 4435,
      "æĽ´åħ·ä½ĵ": 4436,
      "çıłç©ĨæľĹçİĽ": 4437,
      "çļĦå¥½å¤Ħ": 4438,
      "è®¸å¤ļäºº": 4439,
      "æĪĳåİ»äºĨ": 4440,
      "æĥľ": 4441,
      "åıĸä»£": 4442,
      "çļĦé¦ĸ": 4443,
      "è¿Ľè¡ĮæĶ¹åĨĻ": 4444,
      "è¯ŃæĢģ": 4445,
      "ä¹ĭå¤ĸ": 4446,
      "èĩ£": 4447,
      "ä¿Ħ": 4448,
      "çĶµè§Ĩåī§": 4449,
      "å½±çīĩ": 4450,
      "è°ľ": 4451,
      "çĮľ": 4452,
      "æĺ¯éĿŀå¸¸": 4453,
      "ç©·": 4454,
      "éĩĩåıĸæİªæĸ½": 4455,
      "åľĪ": 4456,
      "åħ¶æ¬¡": 4457,
      "ãĢį": 4458,
      "é¦Ī": 4459,
      "ä¸¾åĬŀ": 4460,
      "æĥ³è±¡": 4461,
      "å¾ªçİ¯": 4462,
      "éĺ»": 4463,
      "å®ĭ": 4464,
      "æİ¨çĲĨåħ³ç³»": 4465,
      "ä¼ŀ": 4466,
      "æ¤ħ": 4467,
      "çıłç©ĨæľĹçİĽå³°": 4468,
      "ãĢĮ": 4469,
      "ä¸Ńç«ĭçŃĶæ¡Ī": 4470,
      "æİ¨çĲĨåħ³ç³»åĪ¤æĸŃ": 4471,
      "å£ģ": 4472,
      "æľºåľº": 4473,
      "å¼ķåıĳ": 4474,
      "çī¹å®ļçļĦ": 4475,
      "äºĮåįģ": 4476,
      "è¯·ä»İæĸĩç«łä¸ŃæıĲåıĸåĩº": 4477,
      "ä¸įèµ·": 4478,
      "æ¸¸å®¢": 4479,
      "æľīæķĪçļĦ": 4480,
      "å¹¶å°Ĩåħ¶": 4481,
      "æī°": 4482,
      "ç¢§": 4483,
      "çĮª": 4484,
      "çİĽä¸½": 4485,
      "åĽ½åĨħ": 4486,
      "ç»´çĶŁç´ł": 4487,
      "åı¯ä»¥éĢīæĭ©": 4488,
      "èµĭ": 4489,
      "è¯ĨåĪ«åĩº": 4490,
      "éĽĨä¸Ń": 4491,
      "åĴĮå¹³": 4492,
      "äººä½ĵ": 4493,
      "çļĦæ¢": 4494,
      "æ¸ħåįķ": 4495,
      "æĺ¯è°ģ": 4496,
      "åıªèĥ½": 4497,
      "ä»ģ": 4498,
      "ä½łèĥ½åĳĬè¯īæĪĳ": 4499,
      "åŃĲéĩĮ": 4500,
      "æµ·å¹³éĿ¢ä¸Ĭåįĩ": 4501,
      "æ¶īåıĬåĪ°": 4502,
      "ç²¾å½©": 4503,
      "çĽĳçĿ£": 4504,
      "åı¯ä»¥çĶ¨": 4505,
      "çĺ¦": 4506,
      "æĭĵ": 4507,
      "æ¯ķ": 4508,
      "çļĦä¹¦": 4509,
      "å¤įåı¤": 4510,
      "è¯įè¯Ńæĺ¯ä»Ģä¹ĪæĦıæĢĿ": 4511,
      "é¸¡èĤī": 4512,
      "çŁ¥åĲį": 4513,
      "åħĪçĶŁ": 4514,
      "åŃĹç¬¦": 4515,
      "æĢİä¹ĪåĬŀ": 4516,
      "éĢļé¡º": 4517,
      "çļĦåĬ¨çī©": 4518,
      "æĪĳä¸įçŁ¥éģĵ": 4519,
      "åľ¨è¿ĩåİ»": 4520,
      "æīĢæľīçļĦå®ŀä½ĵ": 4521,
      "åĴĮåıĳå±ķ": 4522,
      "æĬĵ": 4523,
      "å¤§èĦĳ": 4524,
      "æľĢä½İ": 4525,
      "ç¨¿": 4526,
      "ä¼¼ä¹İ": 4527,
      "çļĦæİĴ": 4528,
      "åıĭå¥½": 4529,
      "ä½łä»¬": 4530,
      "æĬĬè¿Ļåı¥è¯Ŀ": 4531,
      "è´§å¸ģ": 4532,
      "æĶ¹åĨĻæĪĲ": 4533,
      "åºĨç¥Ŀ": 4534,
      "æŁ³": 4535,
      "æľŁå¾ħ": 4536,
      "æł¹æį®æīĢ": 4537,
      "åĪĨæĪĲ": 4538,
      "æ¯ĶèµĽä¸Ń": 4539,
      "èįĴ": 4540,
      "å¦ĤæŀľæĤ¨åĸľæ¬¢": 4541,
      "æĬ½åıĸåĩºæĸĩä¸Ń": 4542,
      "æĬ½åıĸåĩºæĸĩä¸ŃæīĢæľīçļĦå®ŀä½ĵ": 4543,
      "åı¯ä»¥è¢«": 4544,
      "ä¸įéľĢè¦ģ": 4545,
      "èĿ¶": 4546,
      "åľ¨æŃ¤": 4547,
      "ä¸ªæľĪ": 4548,
      "è¯Ĺäºº": 4549,
      "çļĦæ²»çĸĹ": 4550,
      "èĤĮèĤī": 4551,
      "çļĦæĬĢèĥ½": 4552,
      "éģ¥": 4553,
      "æľīä»»ä½ķ": 4554,
      "çļĦè¯Ŀé¢ĺ": 4555,
      "è§£çŃĶ": 4556,
      "çļĦæŁ": 4557,
      "éļıæľº": 4558,
      "èĬĤçĽ®": 4559,
      "çĻĮçĹĩ": 4560,
      "çº¢èī²çļĦ": 4561,
      "èī³": 4562,
      "å¿ĥçĲĨåģ¥åº·": 4563,
      "ç¨į": 4564,
      "é³": 4565,
      "åĮĹäº¬å¸Ĥ": 4566,
      "å°ıé¸Ł": 4567,
      "ä¸įéĶĻçļĦéĢīæĭ©": 4568,
      "åįİçĽĽ": 4569,
      "åĬ¨è¯ŃæĢģ": 4570,
      "å±ķå¼Ģ": 4571,
      "å°½éĩı": 4572,
      "åĩºåıĳ": 4573,
      "è¯Ńä¹ī": 4574,
      "ç¿ł": 4575,
      "æĺİçĻ½": 4576,
      "æ³°åĿ¦": 4577,
      "å§ĵåĲį": 4578,
      "ä¸¤åı¥è¯Ŀ": 4579,
      "çĽĹ": 4580,
      "ä¸ĢçĤ¹": 4581,
      "è½¦è¾Ĩ": 4582,
      "å¯Ħ": 4583,
      "çĪ¸": 4584,
      "ä¿ĿæĮģåģ¥åº·": 4585,
      "æª¬": 4586,
      "å¾Īæ£Ĵ": 4587,
      "è¡¬è¡«": 4588,
      "åįİçĽĽé¡¿": 4589,
      "åĭĩæķ¢": 4590,
      "å¤ªç©ºæİ¢ç´¢": 4591,
      "å¦Īå¦Ī": 4592,
      "çļĦé¢ľèī²": 4593,
      "çĶµå½±çļĦ": 4594,
      "Ġæııè¿°": 4595,
      "æĶ¶éĽĨ": 4596,
      "æĶ¶åħ¥": 4597,
      "åĩ½": 4598,
      "èµİ": 4599,
      "åĩºåİ»": 4600,
      "äºĮæ°§åĮĸ": 4601,
      "ç¨®": 4602,
      "æĪĳæĥ³è¦ģ": 4603,
      "éĺ³åħīæĺİåªļ": 4604,
      "å¯¹æĸĩæľ¬éĶĻè¯¯è¿Ľè¡Įä¿®æĶ¹": 4605,
      "å½¢çĬ¶": 4606,
      "ä½Ĩä¸į": 4607,
      "äºĭä¸ļ": 4608,
      "łæª¬": 4609,
      "å°ıçĮ«": 4610,
      "ä½¿åħ¶æĽ´åĬłæµģçķħ": 4611,
      "å°¼åħĭåı·": 4612,
      "å¤§åŀĭ": 4613,
      "äº¤éĢļå·¥åħ·": 4614,
      "åģļèµ·": 4615,
      "ä»ĭç»įä¸Ģä¸ĭ": 4616,
      "å¥¥è¿Ĳä¼ļ": 4617,
      "çļĦæģ": 4618,
      "æĸĩæľ¬è¿Ľè¡ĮçºłéĶĻ": 4619,
      "çļĦæĹ¥": 4620,
      "ä¸Ģçīĩ": 4621,
      "ä¸ªåįķè¯į": 4622,
      "åıĸå¾ĹäºĨ": 4623,
      "æĺ¯åĽłä¸º": 4624,
      "çļĨ": 4625,
      "ä¸Ĭæľī": 4626,
      "è°·æŃĮ": 4627,
      "çĬ¯ç½ª": 4628,
      "çļĦçī¹çĤ¹": 4629,
      "çģµæ´»": 4630,
      "è¿«": 4631,
      "å®ļåĪ¶": 4632,
      "å¾Īéļ¾": 4633,
      "çĥŃéĩı": 4634,
      "çīĽèĤī": 4635,
      "æ³°åĿ¦å°¼åħĭåı·": 4636,
      "ä½łå¯¹": 4637,
      "è¯·æıĲåıĸåĩº": 4638,
      "æīĵéĢł": 4639,
      "æĸĩç«łä¸ŃæıĲåıĸåĩº": 4640,
      "æĸ¹æ³ķåı¯ä»¥": 4641,
      "ä¸Ĭè¿°æĸĩæľ¬è¿Ľè¡ĮçºłéĶĻ": 4642,
      "æĽ´ä¸º": 4643,
      "äºļæ´²": 4644,
      "æĶ¹åĨĻä¸º": 4645,
      "é¹ħ": 4646,
      "ç»Ļå®ļçļĦåı¥åŃĲ": 4647,
      "åĿĩè¡¡": 4648,
      "æĶ»åĩ»": 4649,
      "æ¦Ĥè¿°": 4650,
      "åĨ¬å¤©": 4651,
      "é¦Ļæ¸¯": 4652,
      "ä¸¦": 4653,
      "èĩªä¿¡": 4654,
      "æĺ¯æľĢ": 4655,
      "XX": 4656,
      "è¯¥åı¥åŃĲ": 4657,
      "âĢ¦âĢ¦": 4658,
      "è§Ħå®ļ": 4659,
      "åįľ": 4660,
      "èĬ¬": 4661,
      "åħĭæľį": 4662,
      "æ¼Ķè®²": 4663,
      "éĻª": 4664,
      "ç¾İåĽ½æĢ»ç»Ł": 4665,
      "çĥŃæĥħ": 4666,
      "å¦Ĥä½ķåľ¨": 4667,
      "å¯ĴåĨ·": 4668,
      "æĳĺè¦ģçĶŁæĪĲ": 4669,
      "ç¢Ĺ": 4670,
      "æĽ´æľī": 4671,
      "åĪ·": 4672,
      "è¿Ļç¯ĩæĸĩç«łä¸ŃçļĦ": 4673,
      "çļĦæĶ¯": 4674,
      "å¤ļæł·æĢ§": 4675,
      "æ¶Īæģ¯": 4676,
      "çº¦ä¸º": 4677,
      "çľŁæĺ¯": 4678,
      "èī¯å¥½": 4679,
      "åŀĭçĶ·": 4680,
      "åģļå¥½": 4681,
      "æİ¢éĻ©": 4682,
      "æĴŀ": 4683,
      "ç¼ĺ": 4684,
      "å»ºè®®ä½ł": 4685,
      "ç»Ĩèĥŀ": 4686,
      "æ½ľåľ¨": 4687,
      "ä¼Ļ": 4688,
      "éĥ½åľ¨": 4689,
      "çĽĳæµĭ": 4690,
      "å¤©çĦ¶": 4691,
      "ä¸ĬçıŃ": 4692,
      "åıįé¦Ī": 4693,
      "åŃĶ": 4694,
      "æıŃ": 4695,
      "èĺ": 4696,
      "æ¶µçĽĸ": 4697,
      "å¯¹åħ¶": 4698,
      "åį¢": 4699,
      "æ¶¨": 4700,
      "å¯¸": 4701,
      "åľ°çĲĥçļĦ": 4702,
      "æĿİæĺİ": 4703,
      "æİ¨èįĲä¸Ģæľ¬": 4704,
      "å°¿": 4705,
      "åĩıè½»åİĭåĬĽ": 4706,
      "æĻºèĥ½æīĭæľº": 4707,
      "æļĤ": 4708,
      "è¿Ļåıª": 4709,
      "éĺĲ": 4710,
      "å°ĳå¹´": 4711,
      "2018": 4712,
      "è°Ĭ": 4713,
      "è°¢è°¢ä½ł": 4714,
      "æĶ¾æĿ¾èº«å¿ĥ": 4715,
      "è®¤çŁ¥": 4716,
      "æĽ´å®¹æĺĵ": 4717,
      "èĪĩ": 4718,
      "åı¯ä»¥æĺ¯": 4719,
      "å½¼æŃ¤": 4720,
      "çĶŁæĪĲæĸĩæ¡Ī": 4721,
      "çļĦæ½": 4722,
      "è´«": 4723,
      "ä¸įå¾Ĺ": 4724,
      "åĬĽåŃ¦": 4725,
      "èıĮ": 4726,
      "éĶĢåĶ®é¢Ŀ": 4727,
      "å¤§åľ°": 4728,
      "çļĦæķĳ": 4729,
      "æģĲæĢĸ": 4730,
      "èĬĤèĥ½": 4731,
      "éªĳèĩªè¡Įè½¦": 4732,
      "çĶµå½±éĻ¢": 4733,
      "å®Įç¾İ": 4734,
      "æľªæĿ¥åıĳå±ķ": 4735,
      "çļĦéľĢæ±Ĥ": 4736,
      "ç§ĳå¹»å°ıè¯´": 4737,
      "æľ±": 4738,
      "åĪĨåŃĲ": 4739,
      "éĻ·": 4740,
      "ä¸ŃçļĦå®ŀä½ĵ": 4741,
      "ç©¿è¶Ĭ": 4742,
      "Ġå½ĵçĦ¶åı¯ä»¥": 4743,
      "ä¸Ģæ®µè¯Ŀ": 4744,
      "åĩıå°ĳä½¿çĶ¨": 4745,
      "æ°¸è¿ľ": 4746,
      "æ²Ļåıĳ": 4747,
      "é¢ĨåŁŁçļĦåºĶçĶ¨": 4748,
      "èĵĿèī²çļĦ": 4749,
      "æĤ¨åı¯ä»¥åľ¨": 4750,
      "æ¢¦æĥ³": 4751,
      "ä¼łè¾¾": 4752,
      "å¸®æĪĳçĶŁæĪĲåķĨåĵģæĸĩæ¡Ī": 4753,
      "éĢ²": 4754,
      "åĩıå°ĳæ±¡æŁĵ": 4755,
      "å·®å¼Ĥ": 4756,
      "åĨįæ¬¡": 4757,
      "çģ«æĺŁ": 4758,
      "äº§çĶŁäºĨ": 4759,
      "åĽŀå¿Ĩ": 4760,
      "çīĪåŀĭ": 4761,
      "å°±ä¼ļ": 4762,
      "éº¼": 4763,
      "èº«ä»½": 4764,
      "å¼ķäºº": 4765,
      "2022": 4766,
      "èĬĴ": 4767,
      "å½ĵæĹ¶": 4768,
      "å¹¿æ³ĽåºĶçĶ¨äºİ": 4769,
      "æĿī": 4770,
      "ä¿Ŀéļľ": 4771,
      "å¸Ĥä¸Ńå¿ĥ": 4772,
      "çļĦæľįåĬ¡": 4773,
      "åĪĨéħį": 4774,
      "éĶģ": 4775,
      "åłµ": 4776,
      "ä¾£": 4777,
      "æıĴ": 4778,
      "è®°èĢħ": 4779,
      "çļĦç»ĵæŀľ": 4780,
      "èĥľåĪ©": 4781,
      "æİĺ": 4782,
      "èĻļæĭŁçİ°å®ŀ": 4783,
      "60": 4784,
      "é¦¨": 4785,
      "çĶ³åħĭ": 4786,
      "èĤĸçĶ³åħĭ": 4787,
      "ä¸Ģç¯ĩåħ³äºİ": 4788,
      "çļĦåŁºæľ¬": 4789,
      "éĿŀæ´²": 4790,
      "éĩĩåıĸè¡ĮåĬ¨": 4791,
      "ä¹ŁéľĢè¦ģ": 4792,
      "çļĦæĳĦåħ¥": 4793,
      "\"ï¼Į": 4794,
      "åĪĨå¸ĥ": 4795,
      "äº¤äºĴ": 4796,
      "çļĦä¸ĢäºĽ": 4797,
      "æ¾³": 4798,
      "æķĪçİĩåĴĮ": 4799,
      "çĽ¸åıį": 4800,
      "å¤§å¤ļæķ°": 4801,
      "éķ¿åŁİ": 4802,
      "çĸı": 4803,
      "ç¡®è®¤": 4804,
      "ä¸Ģä¸ªéĹ®é¢ĺ": 4805,
      "è¯·åĽŀçŃĶ": 4806,
      "ç½©": 4807,
      "æııç»ĺ": 4808,
      "ç»´æĮģ": 4809,
      "æĹģ": 4810,
      "å±±èĦī": 4811,
      "çļĦæĥħåĨµä¸ĭ": 4812,
      "å°ıæĺİåĴĮå°ıçº¢": 4813,
      "æŁłæª¬": 4814,
      "åĮ»çĸĹè¡Įä¸ļ": 4815,
      "æĹ¥å¸¸çĶŁæ´»": 4816,
      "åı«åģļ": 4817,
      "éŃħåĬĽ": 4818,
      "æĦŁæŁĵ": 4819,
      "æ¶ĪèĢĹ": 4820,
      "ä»£æĽ¿": 4821,
      "èĭ±éĽĦ": 4822,
      "ç®Ģä»ĭ": 4823,
      "çļĦä¸ĸçķĮ": 4824,
      "è¯·ä¸º": 4825,
      "åĳ½åĲį": 4826,
      "æ¼ł": 4827,
      "ä¼¦çĲĨ": 4828,
      "åĴĮæ°´": 4829,
      "åĪ¶åĵģ": 4830,
      "èĪĴéĢĤçļĦ": 4831,
      "åŁ¹åħ»": 4832,
      "æ¢ģ": 4833,
      "æĮĩå¯¼": 4834,
      "äºĨä»Ģä¹Ī": 4835,
      "å¼Ĺ": 4836,
      "å®ģéĿĻ": 4837,
      "è«": 4838,
      "æĶ¾åħ¥": 4839,
      "æĤī": 4840,
      "è°ĥåĳ³": 4841,
      "çŁ¶": 4842,
      "åĲİçļĦæĸĩæľ¬": 4843,
      "ç¼ĸè¾ĳä¸ĭéĿ¢": 4844,
      "æĽ´æĸ°": 4845,
      "åŃ¦ç§ĳ": 4846,
      "æĪĳåĴĮ": 4847,
      "çļĦä½įç½®": 4848,
      "åŃĺåĤ¨": 4849,
      "æĺ¯ç¾İåĽ½": 4850,
      "æı´": 4851,
      "ç»Ļå®ļä¸Ģç¯ĩæĸĩç«ł": 4852,
      "æī®æ¼Ķ": 4853,
      "ç»Ļå®ļä¸Ģä¸ªåı¥åŃĲ": 4854,
      "çİ¯ä¿Ŀæİªæĸ½": 4855,
      "çĶ¨æ°´": 4856,
      "éĿŀå¸¸æľī": 4857,
      "åĲ¬åĪ°": 4858,
      "æ¶Īè´¹èĢħ": 4859,
      "éĤĢ": 4860,
      "Ġå½ĵçĦ¶": 4861,
      "æĺ¯æĪĳä»¬": 4862,
      "è®²ä¸Ģä¸ª": 4863,
      "éĩįæĸ°åĨĻ": 4864,
      "éī": 4865,
      "èģĬèģĬ": 4866,
      "åį«æĺŁ": 4867,
      "ç¬¬äºĮä¸ª": 4868,
      "é£İæļ´": 4869,
      "çĽĪ": 4870,
      "çļĦæ³ķ": 4871,
      "çļĦå®īåħ¨": 4872,
      "çŃīæĸ¹å¼ı": 4873,
      "æŀĦå»º": 4874,
      "çļĦæ¢¦": 4875,
      "æ³ª": 4876,
      "æ´Ĵ": 4877,
      "åĭĩæ°Ķ": 4878,
      "æŃĮè¯į": 4879,
      "ä¸¤ç§į": 4880,
      "æĪĳå·²ç»ı": 4881,
      "è¿Ļä½į": 4882,
      "åģ¶": 4883,
      "æģ¢": 4884,
      "å¹¶å°Ĩ": 4885,
      "æĸľ": 4886,
      "ä½¿çĶ¨çļĦ": 4887,
      "é¹¿": 4888,
      "ä½ĵéĩį": 4889,
      "å½¢çļĦ": 4890,
      "åı¯è¯»": 4891,
      "åĩºçļĦ": 4892,
      "åį°è±¡": 4893,
      "çĿ¡è§ī": 4894,
      "æĬµ": 4895,
      "è½»è½»": 4896,
      "åıĺéĿ©": 4897,
      "æĹ©æĻ¨": 4898,
      "ä¸ĭåĳ¨": 4899,
      "æ¯«": 4900,
      "åĨħéĥ¨": 4901,
      "çĶŁæĪĲä¸Ģæ®µ": 4902,
      "è°ĭ": 4903,
      "ä¸Ģèµ·åİ»": 4904,
      "æ·±è¿ľ": 4905,
      "æĦıå¤§åĪ©éĿ¢": 4906,
      "é©±": 4907,
      "ä¸ĸçķĮä¸ĬæľĢé«ĺçļĦå±±å³°": 4908,
      "åĽłä¸ºå®ĥä»¬": 4909,
      "å¯Įæľī": 4910,
      "åĬ£": 4911,
      "æ¯ıå¹´": 4912,
      "èµĦæĸĻ": 4913,
      "èĩ³åħ³": 4914,
      "ä¹Łä¸į": 4915,
      "è¿ĳæľŁ": 4916,
      "çļĦåĲĮä¹īè¯į": 4917,
      "äººå·¥æĻºèĥ½æĺ¯ä¸Ģç§į": 4918,
      "åĲĪå¹¶æĪĲä¸Ģä¸ª": 4919,
      "åĬłåİļ": 4920,
      "åİŁå§ĭåı¥åŃĲ": 4921,
      "å«Į": 4922,
      "å¹¿æ³ĽçļĦåºĶçĶ¨": 4923,
      "åĨĻä¸Ģä¸ªæłĩé¢ĺ": 4924,
      "å¹¶è¿Ľè¡Į": 4925,
      "å¹´ä»£": 4926,
      "çļĦè¡Įä¸º": 4927,
      "å¾®é£İ": 4928,
      "æĪĲåĳĺ": 4929,
      "èĲ§": 4930,
      "æīĭæ®µ": 4931,
      "çļĦæ¶Ī": 4932,
      "éŀĭåŃĲ": 4933,
      "æµ´": 4934,
      "ç²¾åĩĨ": 4935,
      "åİ¨æĪ¿": 4936,
      "è¯·æĤ¨": 4937,
      "æ»´": 4938,
      "èĥ¸": 4939,
      "ä¸įåĪ°": 4940,
      "ç§ĳæĬĢçļĦ": 4941,
      "å¿ħè¦ģçļĦ": 4942,
      "å°¼äºļ": 4943,
      "çİ¯å¢ĥéĹ®é¢ĺ": 4944,
      "åŀ«": 4945,
      "ç²®": 4946,
      "åĩºä¸Ģä¸ª": 4947,
      "çļĦæķĳèµİ": 4948,
      "éī´": 4949,
      "æĻļé¤Ĳ": 4950,
      "åĪĨæĶ¯": 4951,
      "æĬĢæľ¯åĴĮ": 4952,
      "åŀĤ": 4953,
      "é¸Łç±»": 4954,
      "è¾Ľ": 4955,
      "å¤§è±¡": 4956,
      "ä»İè¿Ļç¯ĩæĸĩç«łä¸Ń": 4957,
      "æĬĳ": 4958,
      "æ¢¨": 4959,
      "éģĵè·¯": 4960,
      "æĪĲåĬŁçļĦ": 4961,
      "åĩ¯": 4962,
      "ä¸ĸçķĮæĿ¯": 4963,
      "çļĦæĻ¯çĤ¹": 4964,
      "ãĢĤãĢĬ": 4965,
      "éĩįæĸ°ç¼ĸåĨĻ": 4966,
      "ä¼ĺç§ĢçļĦ": 4967,
      "ä¿ĿéĻ©": 4968,
      "å¾Īä¸įéĶĻ": 4969,
      "è¯ĬæĸŃåĴĮæ²»çĸĹ": 4970,
      "å°½å¿«": 4971,
      "çĶŁæĪĲä¸Ģä¸ªæłĩé¢ĺ": 4972,
      "æľ¬å°ıè¯´": 4973,
      "èħ°": 4974,
      "ä»ĸä»¬åľ¨": 4975,
      "è´¸æĺĵ": 4976,
      "æľºåĻ¨ç¿»è¯ĳ": 4977,
      "éĿĴå¹´": 4978,
      "åıªè¦ģ": 4979,
      "çļĦæ¯ı": 4980,
      "èĤĸçĶ³åħĭçļĦæķĳèµİ": 4981,
      "å¸ħæ°Ķ": 4982,
      "å½Ĵç±»": 4983,
      "çļĦä»·æł¼": 4984,
      "èħ¾": 4985,
      "éĺ¶æ®µ": 4986,
      "è¿ĺèĥ½": 4987,
      "åĲģ": 4988,
      "çļ®èĤ¤": 4989,
      "å¤·": 4990,
      "æĺ¯åĲ¦æľī": 4991,
      "ç½ļ": 4992,
      "åıĹä¼¤": 4993,
      "å¡ĳæĸĻè¢ĭ": 4994,
      "è®©å®ĥ": 4995,
      "æħĪ": 4996,
      "åĮĹæŀģ": 4997,
      "çļĦåŁºç¡Ģ": 4998,
      "è¿Ĳè¡Į": 4999,
      "çĲĨè§£åĴĮ": 5000,
      "in": 5001,
      "é©¬æĭī": 5002,
      "çļĦä¸Ģéĥ¨åĪĨ": 5003,
      "éĽ¾": 5004,
      "çĶµå½±åĲįç§°": 5005,
      "ä¿ĿæĬ¤æĪĳä»¬çļĦ": 5006,
      "èĪį": 5007,
      "èģĮä½į": 5008,
      "çļĦé¤Ĳåİħ": 5009,
      "æĺ¯åĵª": 5010,
      "ä¸ºä¸Ģåı¥è¯Ŀ": 5011,
      "____": 5012,
      "éĸĵ": 5013,
      "å°¤åħ¶æĺ¯": 5014,
      "ç¶ĵ": 5015,
      "84": 5016,
      "å¤º": 5017,
      "ç¾İå¦Ļ": 5018,
      "å¸®åĬ©ä½ł": 5019,
      "åŃĺåľ¨åĵªäºĽ": 5020,
      "çİ»": 5021,
      "æİ¥ç§į": 5022,
      "ä¸Ģæ¬¡æĢ§": 5023,
      "çĴĥ": 5024,
      "çĶµåĬ¨": 5025,
      "çĶ¨åĵģ": 5026,
      "çº¢æ¥¼": 5027,
      "é»ĳæļĹ": 5028,
      "çĩĥæĸĻ": 5029,
      "éĵº": 5030,
      "è°¢è°¢ä½łçļĦ": 5031,
      "æ©ĺ": 5032,
      "æĪĲæŀľ": 5033,
      "çļĦæ°´æŀľ": 5034,
      "éĩįè¿°": 5035,
      "æĿīçŁ¶": 5036,
      "è¿Ļåº§": 5037,
      "åĬłéĢŁ": 5038,
      "è¯·æ±Ĥ": 5039,
      "æĪĲç«ĭ": 5040,
      "åı¯èĥ½çļĦ": 5041,
      "çĪ¶æ¯į": 5042,
      "ç»¼åĲĪ": 5043,
      "ä¸ĭåĪĹåı¥åŃĲ": 5044,
      "æĻ®éĢļ": 5045,
      "ä¸Ĭæĺł": 5046,
      "æ±¤å§Ĩ": 5047,
      "è¯ķåĽ¾": 5048,
      "æķ´ä½ĵ": 5049,
      "é¥®é£Łä¹łæĥ¯": 5050,
      "åĶ¯ä¸Ģ": 5051,
      "æĸĩç«łä¸ŃæıĲåĪ°äºĨ": 5052,
      "å¤§æĪĺ": 5053,
      "æ§": 5054,
      "çº¤ç»´": 5055,
      "ç²¾èĩ´": 5056,
      "çļĦæĥħèĬĤ": 5057,
      "ä½©": 5058,
      "æĮĩä»¤": 5059,
      "è¿Ļéģĵ": 5060,
      "å°ıçļĦ": 5061,
      "æĪĸçŁŃè¯Ń": 5062,
      "é¢Ī": 5063,
      "ä¼ļæľī": 5064,
      "ç°": 5065,
      "yt": 5066,
      "åĬ¨åĬĽ": 5067,
      "æĻ¯è§Ĥ": 5068,
      "æµħ": 5069,
      "è¶ħçº§": 5070,
      "ç³Ł": 5071,
      "ä¸īç§į": 5072,
      "çļĦäº§åĵģ": 5073,
      "è¿Ļæĺ¯ä¸Ģéĥ¨": 5074,
      "åĪĻæĺ¯": 5075,
      "éĶ»çĤ¼èº«ä½ĵ": 5076,
      "è¶ĬæĿ¥è¶Ĭå¤ļ": 5077,
      "å©´": 5078,
      "ä»Ģéº¼": 5079,
      "åĬŀåħ¬å®¤": 5080,
      "æıĲåīį": 5081,
      "çīĽä»Ķè£¤": 5082,
      "æ¨ª": 5083,
      "çĵ·": 5084,
      "é¡¾å®¢": 5085,
      "äººç±»æ´»åĬ¨": 5086,
      "ç¡®å®ŀ": 5087,
      "åŃĺåľ¨åĵªäºĽå®ŀä½ĵ": 5088,
      "ä¸¥æł¼": 5089,
      "èİī": 5090,
      "000": 5091,
      "å¿ĥæĢģ": 5092,
      "ython": 5093,
      "æĻ®éģį": 5094,
      "åĴĮæĹ¶éĹ´": 5095,
      "éŃĤ": 5096,
      "è¿Ļé¦ĸè¯Ĺ": 5097,
      "å¿ĥçģµ": 5098,
      "æŃ§": 5099,
      "å¯¹æĸ¹": 5100,
      "æľºéģĩ": 5101,
      "è¿Ļä»½": 5102,
      "çļĦè¿ĩç¨ĭ": 5103,
      "é«Ķ": 5104,
      "è½¬åĮĸä¸º": 5105,
      "æī«": 5106,
      "çļĦæ£": 5107,
      "æī©å¤§": 5108,
      "åĩłå¹´": 5109,
      "ä¸Ģç³»åĪĹ": 5110,
      "åħ³éĶ®çĤ¹": 5111,
      "æŃ£å¸¸": 5112,
      "æľīéĻĲ": 5113,
      "è¿ĺåī©": 5114,
      "ï¼ī<|": 5115,
      "åħ¬ä¼Ĺ": 5116,
      "ç¾İåĳ³çļĦ": 5117,
      "èµµ": 5118,
      "åıĭè°Ĭ": 5119,
      "ç»ıåħ¸çļĦ": 5120,
      "å¿ĺè®°": 5121,
      "ä¸ªæľĭåıĭ": 5122,
      "åľĭ": 5123,
      "æ¶¯": 5124,
      "çļĦæĭ¼": 5125,
      "è¢Ń": 5126,
      "ç»µ": 5127,
      "æłĩè®°": 5128,
      "ä»Ĭå¤©çļĦ": 5129,
      "æĮĩçļĦæĺ¯": 5130,
      "å¤±è´¥": 5131,
      "ç¼ĵè§£åİĭåĬĽ": 5132,
      "çļĦå½¢å¼ı": 5133,
      "æĸĩç«łä¸Ńåħ³äºİ": 5134,
      "è¿ĻäºĽéĥ½æĺ¯": 5135,
      "éĺĲè¿°": 5136,
      "åı¯èĥ½å¯¼èĩ´": 5137,
      "æ´ĽæĿīçŁ¶": 5138,
      "æĿ¥å®ŀçİ°": 5139,
      "äººå·¥æĻºèĥ½åı¯ä»¥": 5140,
      "è¯·éĹ®æĤ¨": 5141,
      "éĩĬæĶ¾": 5142,
      "çļĦåģ¥åº·": 5143,
      "Python": 5144,
      "ä¼ĺæĥł": 5145,
      "çļĦæµģ": 5146,
      "é¸ŁåĦ¿": 5147,
      "å¤§çĨĬçĮ«": 5148,
      "æ¯ģ": 5149,
      "äºİæĺ¯": 5150,
      "ç§įæ¤į": 5151,
      "ç¢į": 5152,
      "çļĦæ¨": 5153,
      "çļĦæŃ£": 5154,
      "åı¯èĥ½æĢ§": 5155,
      "æµģç¨ĭ": 5156,
      "ä¸īè§Ĵ": 5157,
      "æĪĳè§īå¾Ĺ": 5158,
      "æ¼ı": 5159,
      "è¤": 5160,
      "æııè¿°ä¸Ģä¸ª": 5161,
      "æıĲåıĸä¸Ģä¸ĭ": 5162,
      "åĴĮå®īåħ¨": 5163,
      "å¹´è½»äºº": 5164,
      "è¡ĵ": 5165,
      "å°ıçº¢æľī": 5166,
      "çº¢æ¥¼æ¢¦": 5167,
      "è¡¨è¿°": 5168,
      "å¯º": 5169,
      "æĺ¾èĳĹ": 5170,
      "åĩºçİ°äºĨ": 5171,
      "éħįæĸĻ": 5172,
      "ä»İä»¥ä¸ĭ": 5173,
      "æľīæĦıä¹ī": 5174,
      "çļĦäººåĲį": 5175,
      "ä¾Ŀèµĸ": 5176,
      "æŃ¥è¡Į": 5177,
      "åįĹæŀģ": 5178,
      "å¹³æĸ¹": 5179,
      "åĩĿ": 5180,
      "åĩºçĶŁ": 5181,
      "å¦Ĩ": 5182,
      "åº¦çļĦ": 5183,
      "çĥĤ": 5184,
      "æľīæĹ¶": 5185,
      "ä½ľä¸ļ": 5186,
      "ä¸ĢçĽ´åľ¨": 5187,
      "æ°Ķè±¡": 5188,
      "çļĦä¼ĺçĤ¹": 5189,
      "éĹľ": 5190,
      "å¾¡": 5191,
      "æĦĪ": 5192,
      "ä¸ĢåĪĩ": 5193,
      "èģĺ": 5194,
      "é£İåħī": 5195,
      "åĩĨç¡®æĢ§": 5196,
      "åĮĸåĴĮ": 5197,
      "å¸®ä½ł": 5198,
      "âĢĺ": 5199,
      "èµ¶": 5200,
      "äººå·¥æĻºèĥ½æĬĢæľ¯åľ¨": 5201,
      "ç¿Ķ": 5202,
      "è£¤åŃĲ": 5203,
      "çĲĥéĺŁ": 5204,
      "éĢĨ": 5205,
      "æĹĹ": 5206,
      "æī¾åĪ°äºĨ": 5207,
      "åĲĪçī©": 5208,
      "åģ¥èº«æĪ¿": 5209,
      "âĢĻ": 5210,
      "çļĦæĶ¹": 5211,
      "åĳ¼åĲģ": 5212,
      "åľ¨éĤ£éĩĮ": 5213,
      "çĤī": 5214,
      "è°Ĳ": 5215,
      "ãĢĤâĢĿ\\": 5216,
      "æĭĸ": 5217,
      "ä»İä½ł": 5218,
      "åľ¨æĪĳ": 5219,
      "éģİ": 5220,
      "æģ¢å¤į": 5221,
      "æŀ«": 5222,
      "ä¼ı": 5223,
      "èĪŁ": 5224,
      "çĳŁ": 5225,
      "åħĶåŃĲ": 5226,
      "æ´»åĬĽ": 5227,
      "åºŁå¼ĥ": 5228,
      "çĶŁæ´»çļĦ": 5229,
      "åį³å°Ĩ": 5230,
      "æĿľ": 5231,
      "ä¸įåıĺ": 5232,
      "æĩĴ": 5233,
      "çļĦå¤ĸ": 5234,
      "éĹ®çŃĶ": 5235,
      "æ¶Ĥ": 5236,
      "çļĦæĬĢå·§": 5237,
      "æĦŁåĪ°å¾Ī": 5238,
      "æľºåĻ¨åŃ¦ä¹łç®Ĺæ³ķ": 5239,
      "çİ»çĴĥ": 5240,
      "æĸĳ": 5241,
      "çĳ°": 5242,
      "çĽ¸åºĶçļĦ": 5243,
      "æĨ": 5244,
      "ä¾ĽåºĶ": 5245,
      "åĲĦä¸ªé¢ĨåŁŁ": 5246,
      "æīĭæľ¯": 5247,
      "è¿ĲçĶ¨": 5248,
      "ç»Ļå®ļä¸Ģæ®µæĸĩæľ¬": 5249,
      "æĲħ": 5250,
      "åĴĮæľįåĬ¡": 5251,
      "å®¶åĽŃ": 5252,
      "æĸ°åĨł": 5253,
      "åľ°åĿĢ": 5254,
      "å¦»": 5255,
      "å®īéĿĻ": 5256,
      "è§ĦèĮĥ": 5257,
      "æĿ¥æıĲé«ĺ": 5258,
      "ä¿¡ä»»": 5259,
      "éĿ©åĳ½": 5260,
      "åľ°éľĩ": 5261,
      "æĭħå¿ĥ": 5262,
      "çļĦåıĺåĮĸ": 5263,
      "åĽĽä¸ª": 5264,
      "æĤ¬çĸĳ": 5265,
      "å·¥ç¨ĭå¸Ī": 5266,
      "è¯´è¯Ŀ": 5267,
      "æĸĩæ¡£": 5268,
      "æĪĳåĢĳ": 5269,
      "æİ¨èįĲä¸Ģéĥ¨": 5270,
      "éĢĽ": 5271,
      "å§Ĳ": 5272,
      "åŁ¹è®Ń": 5273,
      "å½ĵä»Ĭ": 5274,
      "åģ·": 5275,
      "ä¹ĭæĹħ": 5276,
      "ä¼ļåľ¨": 5277,
      "èıĩ": 5278,
      "ä¸įç¡®å®ļ": 5279,
      "åĿĩåĮĢ": 5280,
      "æĪĸæĺ¯": 5281,
      "å®ĺæĸ¹": 5282,
      "å£¤": 5283,
      "åĲ¬è¯´": 5284,
      "åı¯ä»¥åİ»": 5285,
      "ä»¥ä¸ĭéĹ®é¢ĺ": 5286,
      "æĶĢ": 5287,
      "åĪ«äºº": 5288,
      "è°ĵè¯Ń": 5289,
      "éĻµ": 5290,
      "æīĭè¡¨": 5291,
      "ç»Ĩèħ»": 5292,
      "ä¸Ģåħ±": 5293,
      "ç§¦": 5294,
      "æĲľç´¢å¼ķæĵİ": 5295,
      "è¼": 5296,
      "å¼Ģå±ķ": 5297,
      "éĥİ": 5298,
      "åĩ½æķ°": 5299,
      "ä»¿ä½Ľ": 5300,
      "æĿ¥çļĦ": 5301,
      "åħ¼": 5302,
      "Ŀåįľ": 5303,
      "ä»ĸæĥ³": 5304,
      "è¯·å°Ĩ": 5305,
      "ç´łé£Ł": 5306,
      "è¯ģæĺİ": 5307,
      "ä¾§": 5308,
      "çļĦæ·±": 5309,
      "æĮĩåįĹ": 5310,
      "çļĦå®ļä¹ī": 5311,
      "èģĶçĽŁ": 5312,
      "æĦ¿æĦı": 5313,
      "æĻĭ": 5314,
      "éĻĪè¿°åı¥": 5315,
      "è¿Ļæł·çļĦ": 5316,
      "æĪĳåĸľæ¬¢åĲĥ": 5317,
      "æĢ»ç»ĵä»ĸä»¬": 5318,
      "åı¤åħ¸": 5319,
      "åİĨåı²ä¸Ĭ": 5320,
      "æĩī": 5321,
      "å¼¦": 5322,
      "ä½łä¹Łåı¯ä»¥": 5323,
      "åľºæīĢ": 5324,
      "çĲĥåĳĺ": 5325,
      "åıĳè¡¨": 5326,
      "æĢ»ç»ĵä¸Ģä¸ĭ": 5327,
      "æ¼«æŃ¥": 5328,
      "èĲ½åı¶": 5329,
      "èµ·æºĲ": 5330,
      "å¥½äºĨ": 5331,
      "åĴĮé«ĺ": 5332,
      "æ³¥": 5333,
      "åı¤è¯ĹçĶŁæĪĲ": 5334,
      "çļĦä¾ĭåŃĲ": 5335,
      "åĴĮå»ºè®®": 5336,
      "çļĦæ¸ħ": 5337,
      "le": 5338,
      "æľĢå¤ļ": 5339,
      "åĴĮæķ°æį®": 5340,
      "|>âĢľ": 5341,
      "å·¾": 5342,
      "æģ¤": 5343,
      "æĺ¯å¦Ĥä½ķ": 5344,
      "çĭ®åŃĲ": 5345,
      "åĲĥé¥Ń": 5346,
      "çªģçł´": 5347,
      "åºĻ": 5348,
      "åİĨç¨ĭ": 5349,
      "é¼»": 5350,
      "èĢĮä¸į": 5351,
      "ç«Ł": 5352,
      "åĿĲåľ¨": 5353,
      "æĪĸåħ¶ä»ĸ": 5354,
      "èĩªçĦ¶çİ¯å¢ĥ": 5355,
      "ä»ĩ": 5356,
      "çĽ¸åĲĮçļĦ": 5357,
      "éĸĭ": 5358,
      "åłª": 5359,
      "æĻ®åıĬ": 5360,
      "èĢĲå¿ĥ": 5361,
      "æł¸å¿ĥ": 5362,
      "æĸĩä»¶": 5363,
      "å®¢åİħ": 5364,
      "æĺ¯éĢļè¿ĩ": 5365,
      "çĽ¸å½ĵ": 5366,
      "è¦ģæ±Ĥåħ·æľī": 5367,
      "ä»ĬæĻļ": 5368,
      "çĶ¨ä¸Ģåı¥è¯Ŀ": 5369,
      "ä¾¿æį·": 5370,
      "è®©è®¡ç®Ĺæľº": 5371,
      "å·²ç»ıæĪĲä¸º": 5372,
      "äºļé©¬": 5373,
      "èĪªçıŃ": 5374,
      "æĪĳä»¬å¿ħé¡»": 5375,
      "å¿łè¯ļ": 5376,
      "éħª": 5377,
      "åĭĥ": 5378,
      "åĴĮå·¥ä½ľ": 5379,
      "è´Łè´£": 5380,
      "ä¸Ģéģĵ": 5381,
      "è¢«ç§°ä¸º": 5382,
      "å½ĵæĪĳ": 5383,
      "çĭ¼": 5384,
      "ç£ģ": 5385,
      "æł¹æį®æıĲä¾ĽçļĦ": 5386,
      "èĪªç©º": 5387,
      "åľ°éĵģ": 5388,
      "ç¬Ķè®°": 5389,
      "çļĦå¤©æ°ĶæĥħåĨµ": 5390,
      "åįĵ": 5391,
      "èŃ¦æĸ¹": 5392,
      "é¥±": 5393,
      "æĪĳæĺ¯ä¸Ģä¸ª": 5394,
      "åĪĨåĪ«æĺ¯": 5395,
      "çļĦä¸Ńå¿ĥ": 5396,
      "æĺ¯ä¸Ģé¡¹": 5397,
      "çļĦæĬķ": 5398,
      "å®¶çĶ¨": 5399,
      "40": 5400,
      "æĺĤ": 5401,
      "æłĩå¿Ĺ": 5402,
      "çİĩåĴĮ": 5403,
      "ä¼¸": 5404,
      "èµĦéĩĳ": 5405,
      "ä¸įå°ĳ": 5406,
      "èĬ±è´¹": 5407,
      "æ£ĭ": 5408,
      "æĹħæ¸¸çĽ®çļĦåľ°": 5409,
      "å°ıæĺİçİ°åľ¨": 5410,
      "æĶ¾å¼ĥ": 5411,
      "æľīäºº": 5412,
      "æ»ļ": 5413,
      "æķ°çĻ¾": 5414,
      "åħ¥æīĭ": 5415,
      "åįķä½į": 5416,
      "çĶ±äºİå¤©æ°Ķ": 5417,
      "éĿŀå¸¸æľīè¶£": 5418,
      "å¦ĤæŀľæĤ¨éľĢè¦ģ": 5419,
      "éĤ¦": 5420,
      "éĻ¤ä»¥": 5421,
      "è°ĥèĬĤ": 5422,
      "åıł": 5423,
      "æĽ´ç®Ģæ´ģ": 5424,
      "è¿ĳæĹ¥": 5425,
      "å®ĮåĸĦ": 5426,
      "äºĴçĽ¸": 5427,
      "ä¸ĬåįĪ": 5428,
      "æģ°": 5429,
      "ä¼ĺéĽħ": 5430,
      "Ġ5": 5431,
      "åĩĮ": 5432,
      "å®¶çļĦ": 5433,
      "æ²¡æľīæıĲä¾Ľ": 5434,
      "å®¶åħ·": 5435,
      "èĢĮè¨Ģ": 5436,
      "äºļé©¬éĢĬ": 5437,
      "éĺ²æĻĴ": 5438,
      "æħİ": 5439,
      "ä¸İåħ¶ä»ĸ": 5440,
      "çĽĨ": 5441,
      "çħİ": 5442,
      "éĢīæĭ©ä¸Ģä¸ª": 5443,
      "ä¸ĭä¸Ģä¸ª": 5444,
      "çĸ²åĬ³": 5445,
      "ä¸įæĸŃåľ°": 5446,
      "çļĦé¢ĨåŁŁ": 5447,
      "åĲ¾": 5448,
      "è®°å¾Ĺ": 5449,
      "çŃīæĬĢæľ¯": 5450,
      "çļĦé«ĺ": 5451,
      "åħīçº¿": 5452,
      "åĪ©çĽĬ": 5453,
      "çĽ¸åĬł": 5454,
      "æ¹¾": 5455,
      "åįıåĬ©": 5456,
      "ä¼Ĳ": 5457,
      "çļĦæ¯ĶèµĽ": 5458,
      "ä¸»äººåħ¬": 5459,
      "ä¼ĺç¾İ": 5460,
      "åį±å®³": 5461,
      "åİ¦": 5462,
      "å¤ļäºĳ": 5463,
      "åĮºåĪ«": 5464,
      "çĶŁåĬ¨": 5465,
      "èº«ä½ĵåĴĮ": 5466,
      "åĮºåĿĹéĵ¾æĬĢæľ¯": 5467,
      "èĦĨ": 5468,
      "çī¹åĪ«æĺ¯": 5469,
      "éĺ¿çĶĺ": 5470,
      "æ°Ķè´¨": 5471,
      "ç½Ĺæĸ¯": 5472,
      "èĸ¯": 5473,
      "ä¸ĭçļĦ": 5474,
      "åĸĿåĴĸåķ¡": 5475,
      "æ®ĸ": 5476,
      "æµ¸": 5477,
      "çļĦæĢģ": 5478,
      "åĲįè¯įçŁŃè¯Ń": 5479,
      "å®īè£ħ": 5480,
      "èĥľåľ°": 5481,
      "ç¿ħ": 5482,
      "è¾£æ¤Ĵ": 5483,
      "åĮ»åŃ¦å½±åĥı": 5484,
      "è®¤çľŁ": 5485,
      "éĶĻè¿ĩ": 5486,
      "åĪ©æ¶¦": 5487,
      "å¤©ä½ĵ": 5488,
      "èĢģé¼ł": 5489,
      "ä¼ļå¯¼èĩ´": 5490,
      "åĮĸçŁ³": 5491,
      "çĵ¦": 5492,
      "çļĦæ½ľ": 5493,
      "æľĪçĲĥ": 5494,
      "çľŁå¥½": 5495,
      "ç¢ĳ": 5496,
      "åıĳéĢģ": 5497,
      "çļĦæīĭæľº": 5498,
      "æķ°æį®çļĦ": 5499,
      "åľŁåľ°": 5500,
      "éĩįåĨĻä¸º": 5501,
      "å¨ľ": 5502,
      "ä»İæĸĩç«łä¸Ń": 5503,
      "åŀĥåľ¾éĤ®ä»¶": 5504,
      "åĪĽä¸ļ": 5505,
      "æĺĨ": 5506,
      "æķĮ": 5507,
      "æĦıè§ģ": 5508,
      "è¦ģæ³¨æĦı": 5509,
      "æĻĵ": 5510,
      "ä½łçŁ¥éģĵ": 5511,
      "æĪĳåı¯ä»¥ä¸ºæĤ¨": 5512,
      "èĴľ": 5513,
      "çļĦçĽ®æłĩ": 5514,
      "æĬķåħ¥": 5515,
      "çļĦæĭ¼åĨĻ": 5516,
      "å¿ĥçĲĨåŃ¦": 5517,
      "ä»·åĢ¼è§Ĥ": 5518,
      "ç§ĭå¤©çļĦ": 5519,
      "æĲħæĭĮ": 5520,
      "æ¸©é¦¨": 5521,
      "ä¸ĩçī©": 5522,
      "åĴĮæĺĵäºİçĲĨè§£": 5523,
      "å¹¶ä¸º": 5524,
      "éĴ¢çĲ´": 5525,
      "åĴĮäººç±»": 5526,
      "æĪĳè¦ģ": 5527,
      "è·Į": 5528,
      "èĩªåĬ¨é©¾é©¶æ±½è½¦": 5529,
      "ä»ĸåĸľæ¬¢": 5530,
      "æİ¨æĸŃ": 5531,
      "æĪĳå¾Īåĸľæ¬¢": 5532,
      "æĺ¾å¾Ĺ": 5533,
      "éĩİçĶŁåĬ¨çī©": 5534,
      "æĸĩèīº": 5535,
      "åı¯ä»¥å°Ĩ": 5536,
      "æĪĳä¼ļå°½åĬĽ": 5537,
      "æĥħå¢ĥ": 5538,
      "éĥ½å¾Ī": 5539,
      "æĦıè¯ĨåĪ°": 5540,
      "ä»¥ä¸ĭæĸĩç«ł": 5541,
      "èĬĤå¥ı": 5542,
      "è¸ı": 5543,
      "è³ĩ": 5544,
      "çļĦä¸īä¸ª": 5545,
      "ä½łåĸľæ¬¢": 5546,
      "èĢĮæĺ¯": 5547,
      "ä»Ģä¹Īæĺ¯äººå·¥æĻºèĥ½": 5548,
      "æĶ¹éĿ©": 5549,
      "æľīçĶ¨": 5550,
      "æłĸ": 5551,
      "æĤ¨çļĦéĹ®é¢ĺ": 5552,
      "åľºåĲĪ": 5553,
      "éħ·": 5554,
      "çĸĳéĹ®åı¥": 5555,
      "ä¸įçĶ¨": 5556,
      "å±Ĭ": 5557,
      "æļĳ": 5558,
      "å¿ĥä¸Ń": 5559,
      "åĲĮåŃ¦": 5560,
      "ä¸ªåŃĹç¬¦": 5561,
      "ä¸»æĹ¨": 5562,
      "çīĩæ®µ": 5563,
      "è¿ģ": 5564,
      "å£¶": 5565,
      "æĢ§éĹ®é¢ĺ": 5566,
      "å¥½çľĭçļĦçĶµå½±": 5567,
      "å¼ºå¤§": 5568,
      "åĴĮæĪĳ": 5569,
      "èĥĸ": 5570,
      "ç§ĭåĨ¬": 5571,
      "çĶľçĤ¹": 5572,
      "éĶ¦": 5573,
      "éļĨ": 5574,
      "åĴĮåĪĨæŀĲ": 5575,
      "ç§ĭé£İ": 5576,
      "çļĦæĦŁåıĹ": 5577,
      "èĿ´": 5578,
      "å¾Ĳ": 5579,
      "è¯¦ç»ĨçļĦ": 5580,
      "ãĢĳ": 5581,
      "ãĢĲ": 5582,
      "ä½łæĥ³": 5583,
      "ç²¾ç¡®": 5584,
      "å½»": 5585,
      "èĿ´èĿ¶": 5586,
      "åĮĸåĲĪçī©": 5587,
      "æľĪäº®": 5588,
      "åĴĮæĥħæĦŁ": 5589,
      "æĺı": 5590,
      "æĤ²ä¼¤": 5591,
      "çļĦåħ³ç³»": 5592,
      "æĢĴ": 5593,
      "è¿Ļå°Ĩ": 5594,
      "ç»Ļäºº": 5595,
      "å®ĥåľ¨": 5596,
      "äºĭé¡¹": 5597,
      "è´¹çĶ¨": 5598,
      "çļĦæŃ¥": 5599,
      "è¢«è®¤ä¸ºæĺ¯": 5600,
      "çĪ±çļĦ": 5601,
      "åįĩé«ĺ": 5602,
      "æķ°ä¸º": 5603,
      "åħ´è¶£çĪ±å¥½": 5604,
      "ä»Ĭå¤©æĹ©ä¸Ĭ": 5605,
      "å¼Ĥå¸¸": 5606,
      "è¿Ļä¹Ī": 5607,
      "åĲĮæł·": 5608,
      "ç§ĳå¹»çĶµå½±": 5609,
      "å»·": 5610,
      "ç©ºæ°Ķæ±¡æŁĵ": 5611,
      "å¸¦æľī": 5612,
      "ç½²": 5613,
      "æĽ´é«ĺ": 5614,
      "ä¸¤äºº": 5615,
      "ä¸Ńæī¾åĪ°": 5616,
      "ç½Ĺé©¬": 5617,
      "ä¹ĭéĹ´çļĦåħ³ç³»": 5618,
      "å¤±åİ»": 5619,
      "æľºç¥¨": 5620,
      "è°¨": 5621,
      "è®©äººä»¬": 5622,
      "è½¨": 5623,
      "æľįè£ħ": 5624,
      "æł¹æį®æıĲä¾ĽçļĦæĸĩæľ¬": 5625,
      "çļĦæ¢¦æĥ³": 5626,
      "å¼ķåĬĽ": 5627,
      "ä¹ĥ": 5628,
      "å°ĩ": 5629,
      "åĿ¡": 5630,
      "ä¸ĵä¸ļçļĦ": 5631,
      "çļĦéĩįçĤ¹": 5632,
      "çļĦæłĩçĤ¹ç¬¦åı·": 5633,
      "æĪĳæĺ¯": 5634,
      "èī°": 5635,
      "éĤ»": 5636,
      "çĽ®çļĦæĺ¯": 5637,
      "æħ¢æħ¢": 5638,
      "...": 5639,
      "éľį": 5640,
      "çī©èģĶç½ĳ": 5641,
      "åĽŀå¤į": 5642,
      "åıĳåĩº": 5643,
      "æĺĵè¯»": 5644,
      "çļĦéĥ¨åĪĨ": 5645,
      "ä¹ĺåĿĲ": 5646,
      "è¿Ī": 5647,
      "è¿Ļä¸ªåŁİå¸Ĥ": 5648,
      "ä¼Ĺå¤ļ": 5649,
      "æ±īåł¡": 5650,
      "æ°´åĴĮ": 5651,
      "éĴĵ": 5652,
      "çİ°çĬ¶": 5653,
      "æĭĴ": 5654,
      "å¯¹ä»¥ä¸ĭåı¥åŃĲ": 5655,
      "æľ¯è¯Ń": 5656,
      "ä»İä»¥ä¸ĭæĸĩæľ¬": 5657,
      "ç§ĳæĬĢåĪĽæĸ°": 5658,
      "ç³Łç³ķ": 5659,
      "çĶµå½±è¯Ħè®º": 5660,
      "åįļå®¢": 5661,
      "80": 5662,
      "å¾Īå¤ļäºº": 5663,
      "åħģ": 5664,
      "çļĦç³ĸæŀľ": 5665,
      "ä¸įæĸŃåıĳå±ķ": 5666,
      "çªģåĩº": 5667,
      "å¯ĵ": 5668,
      "æĮĸ": 5669,
      "æ»¨": 5670,
      "çİ¯ä¿ĿéĹ®é¢ĺ": 5671,
      "ç®ĢçŁŃçļĦæĳĺè¦ģ": 5672,
      "ä½¿åħ¶æĽ´åħ·": 5673,
      "ä½¿çĶ¨äºĨ": 5674,
      "ç©¿ä¸Ĭ": 5675,
      "åİ»çľĭ": 5676,
      "è¯ģæį®": 5677,
      "æ±Ĺ": 5678,
      "éĿŀå¸¸éĢĤåĲĪ": 5679,
      "çİ©å®¶": 5680,
      "å¤±æľĽ": 5681,
      "æĤ¨å¥½": 5682,
      "æĪĳè¿ĺ": 5683,
      "åļ": 5684,
      "æ´ĭèĳ±": 5685,
      "æĪĳå¸ĮæľĽ": 5686,
      "æµĵéĥģ": 5687,
      "ç´§æĢ¥": 5688,
      "èĭį": 5689,
      "èŃ¦å¯Ł": 5690,
      "è¡°": 5691,
      "åľ¨è¿ĻéĩĮ": 5692,
      "åħ¨éĥ¨": 5693,
      "çļĦèĬ±": 5694,
      "éĹ¹": 5695,
      "è±¡å¾ģ": 5696,
      "ä»Ĭå¤©æĺ¯": 5697,
      "æ¯Ķå¦Ĥè¯´": 5698,
      "äººå·¥æĻºèĥ½åºĶçĶ¨": 5699,
      "åħĪè¿Ľ": 5700,
      "è®ĵ": 5701,
      "æľīå¤ļå°ĳ": 5702,
      "ç»ĻäºĪ": 5703,
      "å®´": 5704,
      "æĿİåįİ": 5705,
      "åĩłä¸ªèĭ¹æŀľ": 5706,
      "åĬŀæ³ķ": 5707,
      "å¸ĿåĽ½": 5708,
      "æīĭå·¥": 5709,
      "éĤ£è¯·éĹ®": 5710,
      "çļĦæĶ¯æĮģ": 5711,
      "ä½Ĩå®ĥ": 5712,
      "æĿİåĽĽ": 5713,
      "åĩıèĤ¥": 5714,
      "èŀįåĲĪ": 5715,
      "çŃīå¤ļä¸ª": 5716,
      "å¾Īæľīè¶£": 5717,
      "å¹´è½»çļĦ": 5718,
      "æ¸ħæ¥ļ": 5719,
      "çĶŁæĢģçİ¯å¢ĥ": 5720,
      "ç·": 5721,
      "éģµå®Ī": 5722,
      "å²ģæľĪ": 5723,
      "åģļä¸ĢäºĽ": 5724,
      "æ³¨æĦıåĬĽ": 5725,
      "å¼Ģè½¦": 5726,
      "æĻ¶": 5727,
      "é¢ĨåŁŁä¸Ń": 5728,
      "é¡Į": 5729,
      "ç»Ļå®ļæĸĩæľ¬": 5730,
      "æľºåĪ¶": 5731,
      "åħ³éĹŃ": 5732,
      "æĪĳå¯¹": 5733,
      "æľīå®³": 5734,
      "åı¯ä»¥æł¹æį®": 5735,
      "æ¯Ķäºļ": 5736,
      "æ¯ıä¸ªäººçļĦ": 5737,
      "æĪĲçļĦ": 5738,
      "ä¹Ĳè¶£": 5739,
      "éĢĤåĲĪèĩªå·±çļĦ": 5740,
      "äººå·¥æĻºèĥ½å°Ĩ": 5741,
      "éĩĬä¹ī": 5742,
      "åı¯ä»¥ä»İ": 5743,
      "ç»ĻæĪĳæıĲä¾Ľä¸ĢäºĽ": 5744,
      "è¿ĲåĬ¨åĳĺ": 5745,
      "æľĢåĸľæ¬¢çļĦçĶµå½±": 5746,
      "å¯¹æīĭ": 5747,
      "æłĳåı¶": 5748,
      "çļĦåĳ³éģĵ": 5749,
      "å·¥ä½ľæķĪçİĩ": 5750,
      "åı¬": 5751,
      "å¾Īå¿«": 5752,
      "æģ¨": 5753,
      "çĹħäºº": 5754,
      "çļĦæĬ¥": 5755,
      "åĪ¸": 5756,
      "ä»¥èİ·åıĸ": 5757,
      "äººå·¥æĻºèĥ½åĴĮ": 5758,
      "éľĢè¦ģæĪĳ": 5759,
      "åıĮæĸ¹": 5760,
      "æĦŁçŁ¥": 5761,
      "ç¤¾ä¼ļçļĦ": 5762,
      "è®¡ç®Ĺæľºç¨ĭåºı": 5763,
      "è¦ĨçĽĸ": 5764,
      "æĮĩå®ļçļĦ": 5765,
      "éĥ½èĥ½": 5766,
      "æĶ¿åºľåĴĮ": 5767,
      "çį": 5768,
      "çļĦæĶ¶": 5769,
      "å¤±ä¸ļ": 5770,
      "ç¥ŀç§ĺçļĦ": 5771,
      "åĢ¾åĲĳ": 5772,
      "åĴĮè°Ĳ": 5773,
      "æĿ¥çľĭ": 5774,
      "è¿Ļæľ¬å°ıè¯´": 5775,
      "å°Ĩç»Ļå®ļçļĦ": 5776,
      "ä¸įåĨį": 5777,
      "è®¾è®¡ä¸Ģä¸ª": 5778,
      "åŃ©åŃĲä»¬": 5779,
      "éĢıæĺİ": 5780,
      "çļĦæľĢä½³": 5781,
      "çļĦæİĴæĶ¾": 5782,
      "éĻĦè¿ĳçļĦ": 5783,
      "ä½Ĩä¹Ł": 5784,
      "èħĬ": 5785,
      "åħĦ": 5786,
      "çİĭæĺŁ": 5787,
      "æĴĴ": 5788,
      "é¥¼å¹²": 5789,
      "å¤ªæ£Ĵ": 5790,
      "åĽłä¸ºä»ĸ": 5791,
      "å²Ĺ": 5792,
      "æĴĳ": 5793,
      "åĽŀåĪ°": 5794,
      "æ¯ıæ¬¡": 5795,
      "èĶ¬èıľåĴĮ": 5796,
      "èĤ©": 5797,
      "èµł": 5798,
      "èº«è¾¹": 5799,
      "å¯¹ç»Ļå®ļçļĦ": 5800,
      "æĪ¿åŃĲ": 5801,
      "çĶŁåĳ½çļĦ": 5802,
      "çļĦæ²Ļ": 5803,
      "an": 5804,
      "åĬĽäºİ": 5805,
      "æµ·æĭĶ": 5806,
      "èĢĮå¼Ĥ": 5807,
      "å°ĸ": 5808,
      "æ»ĭ": 5809,
      "æĬ¼": 5810,
      "æĮ¯": 5811,
      "å¤ªæ£ĴäºĨ": 5812,
      "å®ŀæľ¨": 5813,
      "çĶ»éĿ¢": 5814,
      "æĢģåº¦": 5815,
      "èĬĤçº¦èĥ½æºĲ": 5816,
      "ç¿©": 5817,
      "å½Ĵç±»ä¸º": 5818,
      "èĮ«": 5819,
      "åłĨ": 5820,
      "å¹½é»ĺ": 5821,
      "çļĦæķĪæŀľ": 5822,
      "ä¸įåĸľæ¬¢": 5823,
      "ĠAI": 5824,
      "éĽķ": 5825,
      "ç»Īäºİ": 5826,
      "æĪª": 5827,
      "æİ¨è¿Ľ": 5828,
      "éĩĳå±ŀ": 5829,
      "éĢ¢": 5830,
      "åĨĽäºĭ": 5831,
      "å¯¹è¯Ŀä¸Ń": 5832,
      "åĩıåİĭ": 5833,
      "æıĲåıĸæĸĩç«łä¸ŃçļĦ": 5834,
      "æ²ĥ": 5835,
      "çĶµåĻ¨": 5836,
      "å¾Īå¤§çļĦ": 5837,
      "æĪĳçļĦæľĭåıĭ": 5838,
      "æīİ": 5839,
      "çĻ¾å¹´": 5840,
      "éĩıåŃĲåĬĽåŃ¦": 5841,
      "è¿Ļä¸ªè¯įè¯Ńæĺ¯ä»Ģä¹ĪæĦıæĢĿ": 5842,
      "ä¼łç»ŁçļĦ": 5843,
      "æĥ§": 5844,
      "æĺİäº®": 5845,
      "åħįè´¹": 5846,
      "çŁ¥è¯ĨåĴĮ": 5847,
      "ä¹Łèĥ½": 5848,
      "çļĦæµ·æ»©": 5849,
      "æĤ¨ä¹Łåı¯ä»¥": 5850,
      "çļĦçĿ¡çľł": 5851,
      "åŃĹç¬¦ä¸²": 5852,
      "ä½¿å®ĥ": 5853,
      "åı¥åŃĲä¸ŃçļĦ": 5854,
      "ä¼Ļä¼´": 5855,
      "éģĹäº§": 5856,
      "ä»ĸåĢĳ": 5857,
      "èĤīç±»": 5858,
      "éļ¾å¿ĺ": 5859,
      "æľ¨æĺŁ": 5860,
      "æĮº": 5861,
      "åĨĮ": 5862,
      "éľŀ": 5863,
      "è±ĨèħĲ": 5864,
      "åı¯è¡Į": 5865,
      "çŃĽ": 5866,
      "ä¼ļå¯¹": 5867,
      "åĪĳ": 5868,
      "åħ±äº«": 5869,
      "åŃ¦èĢħ": 5870,
      "è¿Ļä¸ªé¡¹çĽ®": 5871,
      "èĥ¶": 5872,
      "èĭ¹æŀľåħ¬åı¸": 5873,
      "ä»¥æıĲé«ĺ": 5874,
      "åŃ¦æľ¯": 5875,
      "åľŁå£¤": 5876,
      "è¿Ļä¸ªåı¥åŃĲä¸Ń": 5877,
      "æ¡ĮåŃĲ": 5878,
      "æł¹æį®æĸĩç«ł": 5879,
      "æĺŁéĻħ": 5880,
      "äºĨä¸Ģåľº": 5881,
      "çİ«": 5882,
      "æĺŁæĺŁ": 5883,
      "çĪ¶äº²": 5884,
      "è¿Ļä¸ªæķħäºĭ": 5885,
      "æĹ¥å¸¸çĶŁæ´»ä¸Ń": 5886,
      "28": 5887,
      "åīĳ": 5888,
      "åĽ¾æ¡Ī": 5889,
      "åĩıåİ»": 5890,
      "çıŃçīĻ": 5891,
      "åĴĸåķ¡é¦Ĩ": 5892,
      "åĩºçīĪ": 5893,
      "è¥¿çıŃçīĻ": 5894,
      "çĥŃçĪ±": 5895,
      "è¿Ļä¸ªäºº": 5896,
      "ä¿®å¤į": 5897,
      "æĸ°æĬĢæľ¯": 5898,
      "æ¶Į": 5899,
      "æĪĳçİ°åľ¨": 5900,
      "å°ıåŀĭ": 5901,
      "èĥ¡èĲ": 5902,
      "èĥ¡èĲĿåįľ": 5903,
      "ï¼ģâĢĿ": 5904,
      "ç¬¬ä¸Ģæ¬¡": 5905,
      "çĶ·äºº": 5906,
      "çļĦè´¨éĩı": 5907,
      "æ°´ä¸Ń": 5908,
      "ç³ĸå°¿": 5909,
      "åĩºèī²çļĦ": 5910,
      "æĹ±": 5911,
      "ä¸įèī¯": 5912,
      "å¥¹åľ¨": 5913,
      "æ¡¶": 5914,
      "æĪĲè¯ŃéĩĬä¹ī": 5915,
      "çļĦåĲ«ä¹īæĺ¯ä»Ģä¹Ī": 5916,
      "çļĦæķ°åŃĹ": 5917,
      "Ã·": 5918,
      "æļ®": 5919,
      "æĺİçĻ½äºĨ": 5920,
      "çļĦæ¨¡": 5921,
      "æĹħç¨ĭ": 5922,
      "äºĨä¸Ģå®¶": 5923,
      "åģļä»Ģä¹Ī": 5924,
      "ç³ĸå°¿çĹħ": 5925,
      "åģļä¸Ģä¸ª": 5926,
      "å°Ĩåħ¶ä¸ŃçļĦ": 5927,
      "ï¼ħ": 5928,
      "å¤§è§Ħæ¨¡": 5929,
      "æł¼å¼ı": 5930,
      "å¿ĥèĦıçĹħ": 5931,
      "è¯·æ³¨æĦı": 5932,
      "ä¸Ģåħ±æľīå¤ļå°ĳ": 5933,
      "åĪĽéĢłåĬĽ": 5934,
      "çĻ»å±±": 5935,
      "äºĮæ°§åĮĸç¢³": 5936,
      "æĽ´ç®Ģåįķ": 5937,
      "æĹ¥çĽĬ": 5938,
      "æ³Ħ": 5939,
      "åİŁåĪĻ": 5940,
      "æķ°æį®ä¸Ń": 5941,
      "åĩĨç¡®åľ°": 5942,
      "æ¥Ń": 5943,
      "Ġ+": 5944,
      "çļĦæłĳ": 5945,
      "ç¨ĭåºıåĳĺ": 5946,
      "éĢłæĪĲäºĨ": 5947,
      "ä¼į": 5948,
      "å°ıæľĭåıĭ": 5949,
      "è¿Ĳè¾ĵ": 5950,
      "åħ¨çĲĥèĮĥåĽ´åĨħ": 5951,
      "æķ°æį®åĴĮ": 5952,
      "æİ¥çĿĢ": 5953,
      "åįģäºĮ": 5954,
      "åı¯è¯»æĢ§": 5955,
      "éĿ¢è¯ķ": 5956,
      "æŁ¿": 5957,
      "å¤´èĦĳ": 5958,
      "åı¯ä»¥å¸®åĬ©åĮ»çĶŁ": 5959,
      "ï¼ĳ": 5960,
      "è´¾": 5961,
      "æ´¾å¯¹": 5962,
      "å¤ªå¤ļ": 5963,
      "çļĦç®ĢçŁŃ": 5964,
      "è¯·ä»İæĸĩç«łä¸ŃæıĲåıĸ": 5965,
      "ä¼ĳéĹ²è£¤": 5966,
      "ç§Ĵ": 5967,
      "æŀģç«¯å¤©æ°Ķ": 5968,
      "äººæķ°": 5969,
      "ç¿Ĵ": 5970,
      "çľŁæŃ£çļĦ": 5971,
      "çĶŁæĪĲä¸Ģç¯ĩ": 5972,
      "199": 5973,
      "åľ°çĲĨ": 5974,
      "ç®ĢåİĨ": 5975,
      "èĻ¾": 5976,
      "æľºåĻ¨åŃ¦ä¹łæĺ¯ä¸Ģç§į": 5977,
      "æııåĨĻ": 5978,
      "å¥½åĲĥ": 5979,
      "ä¿ĿæĬ¤åľ°çĲĥ": 5980,
      "çļĦåŃ¦ä¹ł": 5981,
      "è¿ŀè´¯": 5982,
      "æ©Ł": 5983,
      "ä»¥åĨħ": 5984,
      "èµ·åºĬ": 5985,
      "æĢĿå¿µ": 5986,
      "çŀ¬": 5987,
      "ä¹Ķæ²»": 5988,
      "çļĦæ°ĽåĽ´": 5989,
      "è·ŁæĪĳ": 5990,
      "æ¢°": 5991,
      "æŀķ": 5992,
      "è£Ĥ": 5993,
      "æĥħæĦŁåĪĨç±»": 5994,
      "å¤ļåĲĥ": 5995,
      "æĪĳåĸľæ¬¢åľ¨": 5996,
      "åĪ¶åº¦": 5997,
      "ä¸ĸçķĮä¸Ĭ": 5998,
      "çĸ¾çĹħçļĦ": 5999,
      "æ¯ıä¸ªäººéĥ½åºĶè¯¥": 6000,
      "è¡Ģç®¡": 6001,
      "ä¸Ģä¸ªåı¥åŃĲ": 6002,
      "æĸĩæľ¬åĨħå®¹": 6003,
      "å¯¹è±¡": 6004,
      "è¯·éļıæĹ¶": 6005,
      "èµ°äºĨ": 6006,
      "å¹²åĩĢ": 6007,
      "ä¹ŁéĿŀå¸¸": 6008,
      "ä¸ºåħ¶": 6009,
      "åľ¨è¿Ļ": 6010,
      "éĢģç»Ļ": 6011,
      "éĻĮ": 6012,
      "å¼ķäººåħ¥": 6013,
      "ç»ıçĲĨ": 6014,
      "åĩ¤": 6015,
      "æī¼": 6016,
      "åĲĲ": 6017,
      "æĺİæľĪ": 6018,
      "å®¶æĹı": 6019,
      "éĤĢè¯·": 6020,
      "æķĻåŃ¦": 6021,
      "21": 6022,
      "æ»¤": 6023,
      "ä¸įå¤Ł": 6024,
      "ç»³": 6025,
      "äººåĲįåĴĮ": 6026,
      "èĺĳ": 6027,
      "éĢłåŀĭ": 6028,
      "åºŁå¼ĥçī©": 6029,
      "è¯·ç»Ļåĩº": 6030,
      "ä½ľä¸ºAIè¯Ńè¨Ģæ¨¡åŀĭ": 6031,
      "åĴĮèĶ¬èıľ": 6032,
      "ä¸ºä¸»": 6033,
      "æĺ¯ä¸ĸçķĮä¸ĬæľĢ": 6034,
      "æ¯ıåĳ¨": 6035,
      "om": 6036,
      "çļĦæĶ¿": 6037,
      "åĿĽ": 6038,
      "åĬłç»Ĵ": 6039,
      "å¼ķäººåħ¥èĥľ": 6040,
      "æľīæľº": 6041,
      "ä¼¤å®³": 6042,
      "çļĦæ°ĶåĢĻ": 6043,
      "éŁ§": 6044,
      "å¤¹åħĭ": 6045,
      "æŀļ": 6046,
      "æĥĳ": 6047,
      "æĽ´å¤ļä¿¡æģ¯": 6048,
      "çĶ³è¯·": 6049,
      "åĢ¡": 6050,
      "å¯¼èĩ´äºĨ": 6051,
      "åį±æľº": 6052,
      "ä¾¯": 6053,
      "ä¿ĿæĮģèº«ä½ĵåģ¥åº·": 6054,
      "èĬĿå£«": 6055,
      "èĺĳèıĩ": 6056,
      "èĩ´åĬĽäºİ": 6057,
      "åı¯ä»¥å¸®åĬ©ä½ł": 6058,
      "åħ½": 6059,
      "å¤ĩåıĹ": 6060,
      "éĿ¢ä¸Ĭ": 6061,
      "ä¿Ħç½Ĺæĸ¯": 6062,
      "çļĦä½ľçĶ¨": 6063,
      "çŃīäºİ": 6064,
      "åıĻ": 6065,
      "ä¹Łå°±æĺ¯": 6066,
      "åİŁæĿ¥": 6067,
      "ä¸ĬäºĨ": 6068,
      "æµ·æµª": 6069,
      "æĸ¹éĿ¢çļĦåºĶçĶ¨": 6070,
      "åķĨåľº": 6071,
      "æ¯ıå¤©æĹ©ä¸Ĭ": 6072,
      "è¹Ī": 6073,
      "å¸¦çĿĢ": 6074,
      "åħ±åĲĮåĬªåĬĽ": 6075,
      "æŀ¯": 6076,
      "éŁ³ä¹Ĳä¼ļ": 6077,
      "ä»¥ä¾¿æĪĳ": 6078,
      "æŃ£ä¼ł": 6079,
      "ç²¾åĬĽ": 6080,
      "æĹłèģĬ": 6081,
      "å®¢æľį": 6082,
      "\"ãĢĤ": 6083,
      "è¿Ľè¡ĮæĢ»ç»ĵ": 6084,
      "åĴĮæĬĢæľ¯": 6085,
      "æĪĲä¸ºä¸Ģä¸ª": 6086,
      "ä¼ģé¹ħ": 6087,
      "å±ıå¹ķ": 6088,
      "çĶ¨éĢĶ": 6089,
      "Jo": 6090,
      "ä¿¡åı·": 6091,
      "æł¹æį®çĶ¨æĪ·": 6092,
      "åĴĮåŃ¦ä¹ł": 6093,
      "å¿į": 6094,
      "çĽ¸ä¼¼åº¦": 6095,
      "è¿Ļä»¶": 6096,
      "éĢļä¿¡": 6097,
      "äº¿ç¾İåħĥ": 6098,
      "ä¹ĭä¸Ģæĺ¯": 6099,
      "çļĦæİ¢": 6100,
      "å¹¿åľº": 6101,
      "Ġäººå·¥æĻºèĥ½": 6102,
      "ä½¿è®¡ç®Ĺæľº": 6103,
      "çļĦå¸®åĬ©": 6104,
      "ä¼Łå¤§çļĦ": 6105,
      "æĺ¯ä¸Ģå®¶": 6106,
      "ä¸ĸçķĮçļĦ": 6107,
      "é½¿": 6108,
      "æĶ¹åıĺäºĨ": 6109,
      "éĽĨåĽ¢": 6110,
      "æ¬º": 6111,
      "å¸®åĬ©åĮ»çĶŁ": 6112,
      "çłĶç©¶åıĳçİ°": 6113,
      "èĢģèĻİ": 6114,
      "çĥĺ": 6115,
      "æĤ¨åı¯ä»¥èĢĥèĻĳ": 6116,
      "æĴ°åĨĻ": 6117,
      "åĲĮäºĭ": 6118,
      "é«ĺæ¸©": 6119,
      "çĶŁæĪĲä¸Ģä¸ªä¸İ": 6120,
      "ä¸Ģéģį": 6121,
      "è®²è¿°äºĨä¸Ģ": 6122,
      "æĹłæ³ķç¡®å®ļ": 6123,
      "ä½łèĥ½ä¸įèĥ½": 6124,
      "ç¥ŀå¥ĩ": 6125,
      "èĽĩ": 6126,
      "åı¯èĥ½éľĢè¦ģ": 6127,
      "è¿ĻäºĽéĹ®é¢ĺ": 6128,
      "å¥³åŃĲ": 6129,
      "åĴĮçĦ¦èĻĳ": 6130,
      "è¾ī": 6131,
      "åĸ·": 6132,
      "èį¯çī©çłĶåıĳ": 6133,
      "åħ¶å®ŀ": 6134,
      "æĹĭå¾ĭ": 6135,
      "çİ«çĳ°": 6136,
      "èĪĴæľį": 6137,
      "å¤§åĨĻ": 6138,
      "éĩįéĩı": 6139,
      "åĩłä¹İ": 6140,
      "æĶ¿æ²»": 6141,
      "èĥĨ": 6142,
      "å©´åĦ¿": 6143,
      "èŁ": 6144,
      "æķĻå¸Ī": 6145,
      "åĴĮåģ¥åº·": 6146,
      "å¤ıå¨ģ": 6147,
      "æİ¥è§¦": 6148,
      "å±ħä½ı": 6149,
      "çļĦæĢģåº¦": 6150,
      "çĶŁæĪĲä¸Ģä»½": 6151,
      "å¤ıå¨ģå¤·": 6152,
      "å¾Īé«ĺåħ´": 6153,
      "å¾®ç¬ĳ": 6154,
      "å¦Ĥä½ķæıĲé«ĺ": 6155,
      "åı¯ä»¥æıĲä¾Ľ": 6156,
      "èı²å°Ķ": 6157,
      "AP": 6158,
      "åĽŀå½Ĵ": 6159,
      "çļĦæ°Ķæģ¯": 6160,
      "é¬¼": 6161,
      "ç¿¼": 6162,
      "æķ°æį®åĪĨæŀĲ": 6163,
      "æľªæĿ¥çļĦåıĳå±ķ": 6164,
      "å¾ĴæŃ¥": 6165,
      "é«ĺéĢŁ": 6166,
      "åĴĮä¸į": 6167,
      "æĪ·å¤ĸè¿ĲåĬ¨": 6168,
      "ç¬¼": 6169,
      "çĭĲ": 6170,
      "å¤ıå¤©çļĦ": 6171,
      "æĿ¥äºĨ": 6172,
      "å¤įæĿĤçļĦ": 6173,
      "åĮĨ": 6174,
      "å¼ºå¤§çļĦ": 6175,
      "çħ§çīĩ": 6176,
      "åıįæĺł": 6177,
      "çĸ¼": 6178,
      "æĺ¥èĬĤ": 6179,
      "æ¨¡æĭŁäººç±»æĻºèĥ½": 6180,
      "æ¡Īä»¶": 6181,
      "å¥½åĥı": 6182,
      "æĺİæ²»": 6183,
      "ç²Ĺ": 6184,
      "å¹¶è¦ģæ±Ĥ": 6185,
      "éŁ©åĽ½": 6186,
      "åĩŃ": 6187,
      "å¹¶è§£éĩĬ": 6188,
      "å¦ĤæŀľæĤ¨æĥ³": 6189,
      "æ¡Ĥ": 6190,
      "åįĹäº¬": 6191,
      "åĺī": 6192,
      "èº«æĿĲ": 6193,
      "æī¼è¦ģ": 6194,
      "è¯·ä»İè¿Ļç¯ĩæĸĩç«łä¸ŃæıĲåıĸåĩº": 6195,
      "å°Ĩåħ¶ä¸Ń": 6196,
      "ä¸»æ¼Ķ": 6197,
      "çĲĨå¿µ": 6198,
      "å¥¶éħª": 6199,
      "ä½Ĩåľ¨": 6200,
      "è¯ŀ": 6201,
      "å®ļä½į": 6202,
      "çĻ½äºĳ": 6203,
      "åĲŁ": 6204,
      "åĦ¿åŃĲ": 6205,
      "å¿«éĢŁåıĳå±ķ": 6206,
      "åĢĴåħ¥": 6207,
      "è¯Ńå¢ĥ": 6208,
      "åĪĽéĢłä¸Ģä¸ª": 6209,
      "ä¼ļè®®ä¸Ĭ": 6210,
      "åľ¨ç»Ļå®ļçļĦæĸĩæľ¬ä¸Ń": 6211,
      "æĽ¹": 6212,
      "æĿ¥åĪ°": 6213,
      "è¡¨è¾¾æĸ¹å¼ı": 6214,
      "æ°ĽåĽ´": 6215,
      "æĽ´å¥½åľ°çĲĨè§£": 6216,
      "éĵģå¡Ķ": 6217,
      "éĿĴæĺ¥": 6218,
      "è¿½éĢĲ": 6219,
      "æľįåĬ¡åĳĺ": 6220,
      "ç¾¤ä½ĵ": 6221,
      "åľŁè±Ĩ": 6222,
      "æĪĺçķ¥": 6223,
      "çıĬ": 6224,
      "Ġä»ĸ": 6225,
      "è¿ĩäºİ": 6226,
      "å®¾è¯Ń": 6227,
      "æ°Ķæģ¯": 6228,
      "æĢ»ç»ĵåĩº": 6229,
      "æŁĲç§į": 6230,
      "è´¨æĦŁ": 6231,
      "äº§åĵģçļĦ": 6232,
      "çļĦæķ°åŃ¦": 6233,
      "æĬ¢": 6234,
      "ç«ĭåį³": 6235,
      "çļĦåŃ£èĬĤ": 6236,
      "å¼ºåĮĸ": 6237,
      "åĺ´": 6238,
      "çİ°åľº": 6239,
      "æĢ§åĪ«": 6240,
      "è¿Ļæĺ¯ä¸Ģç¯ĩåħ³äºİ": 6241,
      "åĬłåħ¥ä¸ĢäºĽ": 6242,
      "å¯ĮåĲ«": 6243,
      "éĻªä¼´": 6244,
      "éĺ¿çĶĺæŃ£ä¼ł": 6245,
      "äºŃ": 6246,
      "éĿŀæ³ķ": 6247,
      "æ¿Ģåıĳ": 6248,
      "è§Ĩä¸º": 6249,
      "è´·": 6250,
      "æĢİä¹Īåģļ": 6251,
      "æ²®": 6252,
      "è¢«åĬ¨è¯ŃæĢģ": 6253,
      "è¯ķçĿĢ": 6254,
      "éĢļçŁ¥": 6255,
      "åİŁåĪĽ": 6256,
      "å¤§èĩªçĦ¶çļĦ": 6257,
      "åĴĮä¸ªäºº": 6258,
      "çĽ¸åħ³çļĦéĹ®é¢ĺ": 6259,
      "åħĥéĴ±": 6260,
      "çĩ¥": 6261,
      "ç§ĳåŃ¦å®¶ä»¬": 6262,
      "ä¾ĿçĦ¶": 6263,
      "NA": 6264,
      "ä½ĵçİ°": 6265,
      "éĻ¤æŃ¤": 6266,
      "ç¾İè§Ĥ": 6267,
      "ä¼łéĢĴ": 6268,
      "ç§ĳæĬĢåħ¬åı¸": 6269,
      "éļľç¢į": 6270,
      "åħ¶ä¸ŃåĮħåĲ«": 6271,
      "å¹¶ä½¿çĶ¨": 6272,
      "ä¹Łåľ¨": 6273,
      "ä»»åĬ¡ä¸Ń": 6274,
      "çļĦæĻ®": 6275,
      "çĥ¤ç®±": 6276,
      "çĢ": 6277,
      "ä»İç»Ļå®ļçļĦ": 6278,
      "ç¼ĵè§£çĦ¦èĻĳ": 6279,
      "åī²": 6280,
      "è¡ĮæĶ¿": 6281,
      "è¿Ļæĺ¯ä¸Ģæ®µ": 6282,
      "æł¹æį®æĤ¨çļĦ": 6283,
      "çļĦåĲĮæĹ¶": 6284,
      "äººæĢ§": 6285,
      "ä½ĵç³»": 6286,
      "æ´¥": 6287,
      "ç³Ĭ": 6288,
      "å®ĮæĪĲäºĨ": 6289,
      "æķ°åŃĹåĮĸ": 6290,
      "hn": 6291,
      "æ¡Ĩ": 6292,
      "è¿ľç¨ĭ": 6293,
      "æĦŁäºº": 6294,
      "èµ¢å¾ĹäºĨ": 6295,
      "ç®Ģæĺİæī¼è¦ģ": 6296,
      "äºĳè®¡ç®Ĺ": 6297,
      "æĤłä¹ħ": 6298,
      "æĭ¯": 6299,
      "åĽŀçŃĶæĤ¨çļĦéĹ®é¢ĺ": 6300,
      "è¿ĳä¹īè¯į": 6301,
      "çļĦæ¡": 6302,
      "äººå·¥æĻºèĥ½å¯¹": 6303,
      "ä¸īæĺİæ²»": 6304,
      "æľªæĿ¥ç§ĳæĬĢ": 6305,
      "çĶŁæĪĲä¸Ģä¸ªåĮħåĲ«": 6306,
      "æĦŁåĨĴ": 6307,
      "å®ŀéĻħä¸Ĭ": 6308,
      "åĨ²çªģ": 6309,
      "è¿Ľåı£": 6310,
      "ä»¥åīį": 6311,
      "æĽ´åħ·": 6312,
      "ä¹ĭä¸Ń": 6313,
      "éģ®": 6314,
      "äºĶè¨Ģ": 6315,
      "æıĲåıĸåĩºæĿ¥": 6316,
      "ä»ĸæĬĬ": 6317,
      "æĪĳæĹłæ³ķæıĲä¾Ľ": 6318,
      "çıįæĥľ": 6319,
      "æĥ«": 6320,
      "åħ¨çĲĥæ°ĶåĢĻåıĺåĮĸ": 6321,
      "çŃīåĽłç´ł": 6322,
      "åĬłå·¥": 6323,
      "ä½łæľĢåĸľæ¬¢çļĦ": 6324,
      "åľ°åĮºçļĦ": 6325,
      "åĲİçļĦç»ĵæŀľ": 6326,
      "ä½Ĩæĺ¯æĪĳ": 6327,
      "ç»Ħç»ĩåĲį": 6328,
      "æĪĲäºĨ": 6329,
      "æ¿ĢçĥĪ": 6330,
      "åħģè®¸": 6331,
      "æĪĳä¸ºæĤ¨": 6332,
      "æľĢéĢĤåĲĪ": 6333,
      "çļĦæĻ¯èī²": 6334,
      "æ¸©å®¤æ°Ķä½ĵæİĴæĶ¾": 6335,
      "åħ¶ä»ĸçļĦ": 6336,
      "å¹¼": 6337,
      "å¤ĸæĺŁ": 6338,
      "æĽ´å¤ļçļĦä¿¡æģ¯": 6339,
      "ä¸ĸçķĮåĲĦåľ°": 6340,
      "å¾Ģå¾Ģ": 6341,
      "åĿļæŀľ": 6342,
      "å¤©ä¸ĭ": 6343,
      "éĹ»åĲį": 6344,
      "èģĶåĲĪåĽ½": 6345,
      "ä¹Łå°Ĩ": 6346,
      "ä¼ĺè´¨çļĦ": 6347,
      "åĩıç¼ĵ": 6348,
      "éĻ¤æŃ¤ä¹ĭå¤ĸ": 6349,
      "éĻ¤æ³ķ": 6350,
      "ç»Ļå®ļä¸Ģç»Ħ": 6351,
      "çĸ²æĥ«": 6352,
      "å¤ļæ¬¡": 6353,
      "ä½łåı¯ä»¥åľ¨": 6354,
      "åı¯ä»¥å¸®åĬ©æĪĳä»¬": 6355,
      "äºīè®®": 6356,
      "æ¼Ĥäº®çļĦ": 6357,
      "éĹ®é¢ĺåĴĮ": 6358,
      "æĲºå¸¦": 6359,
      "é²¸é±¼": 6360,
      "çļĦæ¤": 6361,
      "åį§å®¤": 6362,
      "ä¸ĺ": 6363,
      "å¥¥æĸ¯": 6364,
      "Ġ(": 6365,
      "éĢĿ": 6366,
      "è±¹": 6367,
      "ä»İä¸Ń": 6368,
      "æıĲåıĸä¸Ģä¸ĭè¿Ļç¯ĩæĸĩç«ł": 6369,
      "John": 6370,
      "è¿ĻäºĽæĸ¹æ³ķ": 6371,
      "äº«çĶ¨": 6372,
      "ä¸Ľ": 6373,
      "çļĦæĻļ": 6374,
      "æ¯Ľè¡£": 6375,
      "çļĦåħ³éĶ®çĤ¹": 6376,
      "å§Ĩæĸ¯": 6377,
      "å¹¶ä¸įæĺ¯": 6378,
      "æľīäºĽäºº": 6379,
      "æ¡Īä¾ĭ": 6380,
      "æ¶ĪæŀģçŃĶæ¡Ī": 6381,
      "å¤§å¤§": 6382,
      "çĮ´": 6383,
      "æĿİçĻ½": 6384,
      "ï¼Ĳ": 6385,
      "éģ£": 6386,
      "çºªå¿µ": 6387,
      "çº¦ä¼ļ": 6388,
      "çľĭäºĨ": 6389,
      "åĶ±æŃĮ": 6390,
      "æ°Ľ": 6391,
      "éļ¾é¢ĺ": 6392,
      "èĩªå·±çļĦè¯Ŀ": 6393,
      "æł¹éĵħç¬Ķ": 6394,
      "èĩ³åħ³éĩįè¦ģ": 6395,
      "1000": 6396,
      "å¼ĢæĶ¾å¼ı": 6397,
      "èº«ä¸Ĭ": 6398,
      "å£³": 6399
    },
    "merges": [
      "ä ¸",
      "ï ¼",
      "| >",
      "< |",
      "ã Ģ",
      "ç ļ",
      "çļ Ħ",
      "ï¼ Į",
      "e n",
      "en d",
      "ãĢ Ĥ",
      "ä º",
      "t e",
      "x t",
      "o f",
      "te xt",
      "|> <|",
      "end of",
      "endof text",
      "ä »",
      "å ı",
      "i m",
      "æ ľ",
      "æ Ī",
      "è ¯",
      "è ¿",
      "å ħ",
      "æ ĸ",
      "å ¤",
      "ä¸ Ģ",
      "ä ½",
      "æ ĺ",
      "å ®",
      "ç Ķ",
      "å Ī",
      "å ľ",
      "å Ĳ",
      "a r",
      "s t",
      "ar t",
      "st art",
      "ç »",
      "å Ĵ",
      "ä ¹",
      "å Ĭ",
      "åĴ Į",
      "å Ń",
      "æĺ ¯",
      "å °",
      "ä¸ ª",
      "ãĢĤ <|",
      "æĪ ĳ",
      "Ġ <|",
      "ãĢ ģ",
      "ä» ¥",
      "è ®",
      "æĸ ĩ",
      "åľ ¨",
      "ï¼ ļ",
      "äº º",
      "æľ ī",
      "æ Ĺ",
      "ĥ ½",
      "å Ľ",
      "ä¸ Ń",
      "è¿ Ļ",
      "å ¸",
      "å ĩ",
      "äº Ĩ",
      "é ĩ",
      "å º",
      "æ Ŀ",
      "åı ¯",
      "å ¹",
      "è ¡",
      "å Ĩ",
      "ä ¼",
      "é ¢",
      "é Ģ",
      "è ĥ½",
      "è ¦",
      "å ·",
      "çļĦ æ",
      "è¦ ģ",
      "å ¥",
      "å ¾",
      "å Į",
      "ä¸ º",
      "é Ĺ",
      "æ ı",
      "ç İ",
      "å į",
      "ç ī",
      "å ½",
      "ç §",
      "å ¯",
      "è §",
      "ä¸ į",
      "çĶ Ł",
      "æ ī",
      "ç Ń",
      "å ¼",
      "æ ł",
      "â Ģ",
      "ä¸ ĭ",
      "æ Ģ",
      "çĶ ¨",
      "æ ŀ",
      "é Ŀ",
      "ä ¿",
      "æ Ĭ",
      "æ Ń",
      "åı¯ ä»¥",
      "æ ķ",
      "æı Ĳ",
      "ä» ¬",
      "ä¸Ģ ä¸ª",
      "è Ģ",
      "å İ",
      "åŃ Ĳ",
      "æĪ Ĳ",
      "ç «",
      "æ ³",
      "æ °",
      "ç Ľ",
      "åĩ º",
      "æ Ļ",
      "æ Ľ",
      "å ĵ",
      "æĿ ¥",
      "æ ĥ",
      "æ Ħ",
      "¦ Ĥ",
      "è ĩ",
      "å ĳ",
      "æľ ¬",
      "è¡ Į",
      "ç Ĳ",
      "æ ĭ",
      "ä½ ł",
      "é¢ ĺ",
      "åı ¥",
      "ä ¾",
      "ä» ĸ",
      "ï¼ Ł",
      "å ¿",
      "æ Ķ",
      "åĪ °",
      "ä¸ Ĭ",
      "åŃ ¦",
      "å¥ ½",
      "å¤ ©",
      "æ İ",
      "å ¦Ĥ",
      "äº İ",
      "æĹ ¶",
      "æ µ",
      "æĽ ´",
      "æ į",
      "ç» Ļ",
      "åľ °",
      "ç º",
      "åħ ³",
      "è ¾",
      "ç ®",
      "è ´",
      "å ±",
      "å¤ §",
      "ç« ł",
      "è µ",
      "çŃ ī",
      "å¤ ļ",
      "é £",
      "æĸĩ ç«ł",
      "å¯ ¹",
      "æ ¯",
      "äº Ľ",
      "å· ¥",
      "æ Ĥ",
      "å° ı",
      "æĸ ¹",
      "å® ļ",
      "æ ¬",
      "ä¼ ļ",
      "èĩ ª",
      "åĬ ¨",
      "åħ ¶",
      "æ ´",
      "æľ Ģ",
      "ä½ ľ",
      "åı ĳ",
      "æ ¸",
      "è¯ ·",
      "æĸ °",
      "çī ©",
      "éĿ ¢",
      "åĪ Ĩ",
      "ç ±",
      "éĹ ®",
      "æ Į",
      "å¹ ¶",
      "å° Ĩ",
      "æŀ ľ",
      "é Ķ",
      "é ľ",
      "æį ®",
      "è¯ Ń",
      "ç Ĥ",
      "æ³ ķ",
      "ç ľ",
      "å ģ",
      "å Ł",
      "æ ²",
      "é Ļ",
      "æĸĩ æľ¬",
      "è¿ Ľ",
      "åĬ ł",
      "çİ °",
      "ç Ħ",
      "åı¥ åŃĲ",
      "âĢ Ŀ",
      "ä½ ĵ",
      "æĤ ¨",
      "ä½ ¿",
      "éĩ į",
      "ä¿ Ŀ",
      "å½ ±",
      "å® ĥ",
      "æ ±",
      "è ī",
      "æĺ İ",
      "çĶ µ",
      "åı ĸ",
      "è ½",
      "ä¸ »",
      "ç± »",
      "é ģ",
      "é ĺ",
      "ä¹ Ī",
      "âĢ ľ",
      "è¯ į",
      "è¿ ĩ",
      "å® ¶",
      "è ¶",
      "é «",
      "ç Ł",
      "åº Ķ",
      "æĪ ĸ",
      "å ĸ",
      "éľ Ģ",
      "æĪĳ ä»¬",
      "å¸ ¸",
      "é« ĺ",
      "ç ¾",
      "åĬ Ľ",
      "æĻ º",
      "çĦ ¶",
      "å¾ Ī",
      "çĲ Ĩ",
      "åĲ Į",
      "æ° Ķ",
      "æľ º",
      "ç§ į",
      "åĽ ½",
      "æ ģ",
      "æĻº èĥ½",
      "æĦ Ł",
      "åĮ ĸ",
      "å ī",
      "åĵ ģ",
      "æĢ §",
      "åĨ Ļ",
      "çĤ ¹",
      "ä»¥ ä¸ĭ",
      "è °",
      "ç ¯",
      "åĽ ł",
      "è Ĭ",
      "éĹ® é¢ĺ",
      "åĲ į",
      "å¾ Ĺ",
      "ä¹ Ł",
      "æķ °",
      "ç ³",
      "æĥ ħ",
      "ç ©",
      "éľĢ è¦ģ",
      "ä¾ Ľ",
      "æĬ Ģ",
      "ä» İ",
      "ç¾ İ",
      "ä¹ ĭ",
      "è§ £",
      "ç¯ ĩ",
      "åħ ¬",
      "å ¢",
      "åº ¦",
      "æł ¹",
      "å¹ ´",
      "å »",
      "åİ »",
      "æıĲ ä¾Ľ",
      "éĢ ļ",
      "æ ¡",
      "ç» ı",
      "ä¿ ¡",
      "ç ĸ",
      "ç Ŀ",
      "æ Ł",
      "é Ĥ",
      "èī ²",
      "çİ ¯",
      "éĹ ´",
      "è Ĥ",
      "å® ŀ",
      "æĦ ı",
      "è¡ ¨",
      "æł¹ æį®",
      "ä¹ ł",
      "ç ¤",
      "è¿Ļ ä¸ª",
      "äºº å·¥",
      "ä¸Ģ äºĽ",
      "å¿ ĥ",
      "ä½ Ĩ",
      "æī Ģ",
      "å Ģ",
      "æĥ ³",
      "äººå·¥ æĻºèĥ½",
      "å» º",
      "è¿Ľ è¡Į",
      "ç ¨",
      "ä» Ģ",
      "çĽ ¸",
      "åĮ ħ",
      "æľ ¯",
      "éĩ Į",
      "èĢ ħ",
      "æ ®",
      "é ¦",
      "è® ¡",
      "åĲ Ī",
      "ç ¼",
      "åĲ İ",
      "èĢ Į",
      "ç ½",
      "äº ĭ",
      "çĲ ĥ",
      "å ŀ",
      "ä»Ģ ä¹Ī",
      "å½ ĵ",
      "è¿ °",
      "åĸ ľ",
      "è Ĳ",
      "æģ ¯",
      "çĶŁ æĪĲ",
      "è¯ ¥",
      "é Ľ",
      "æŃ £",
      "éĩ ı",
      "éĿ ŀ",
      "çľ ĭ",
      "ç ¬",
      "è¿ ĺ",
      "ç ķ",
      "ä¸ ļ",
      "é ķ",
      "æ¬ ¢",
      "åħ ¥",
      "é ĥ½",
      "é ¡",
      "é£ Ł",
      "å¸ Ĥ",
      "æĹ ¥",
      "é ĥ",
      "ç ¡",
      "è ģ",
      "ä¸ İ",
      "æ¯ Ķ",
      "åħ ¨",
      "æŃ ¤",
      "è ĭ",
      "è į",
      "æ´ »",
      "å¼ ı",
      "è¯ Ŀ",
      "æ° ´",
      "è ·",
      "æ® µ",
      "æ ·",
      "çĶµ å½±",
      "ç® Ģ",
      "ç ´",
      "å¸ ®",
      "æ¡ Ī",
      "å± ķ",
      "æıĲ åıĸ",
      "å¤ ĸ",
      "å¼ Ģ",
      "ç»Ļ å®ļ",
      "ç ĥ",
      "ç ĭ",
      "æĹ ł",
      "åħ ·",
      "åŃ¦ ä¹ł",
      "é ļ",
      "æĺ¯ ä¸Ģ",
      "åı ĺ",
      "è¯ ´",
      "çī ¹",
      "å¥½ çļĦ",
      "çĿ Ģ",
      "éģ ĵ",
      "éĤ £",
      "ä½¿ çĶ¨",
      "åī į",
      "éķ ¿",
      "é£ İ",
      "éĿŀ å¸¸",
      "è ¢",
      "è® ©",
      "åį ķ",
      "æĭ ¬",
      "èµ ·",
      "å Ŀ",
      "ä¿¡ æģ¯",
      "å ķ",
      "ç» ĵ",
      "ç Ī",
      "åĨ ħ",
      "çŃ Ķ",
      "ç¨ ĭ",
      "åŃ Ĺ",
      "è ¨",
      "éĥ ¨",
      "åĸľ æ¬¢",
      "è® ®",
      "åĽ ŀ",
      "æĶ ¹",
      "ç¯ĩ æĸĩç«ł",
      "å° ĳ",
      "åĬ ©",
      "ä¸Ń çļĦ",
      "è º",
      "ç§ ĳ",
      "ç¡ ®",
      "åŀ ĭ",
      "æ ĳ",
      "ç³ »",
      "åı Ĭ",
      "å¤ Ħ",
      "éĢ Ĥ",
      "ç Ļ",
      "ä½ ķ",
      "åģ ¥",
      "çĽ ®",
      "æĮ ģ",
      "èº «",
      "åĪ ¶",
      "éĢ ī",
      "ç ł",
      "è¨ Ģ",
      "è Ļ",
      "ä¸ ¤",
      "é Ł",
      "é ¥",
      "é¢ Ĩ",
      "æĬĢ æľ¯",
      "æł ĩ",
      "äº §",
      "æİ ¨",
      "ä» £",
      "ç® Ĺ",
      "å Ļ",
      "é ħ",
      "åĬ ¡",
      "åĮ »",
      "åĪ «",
      "ãĢ ĭ",
      "ãĢ Ĭ",
      "åľ º",
      "ä¸ ī",
      "æ »",
      "å¢ ĥ",
      "æľ ª",
      "å¦Ĥ æŀľ",
      "æµ ·",
      "æ² ¡",
      "åĻ ¨",
      "ç ģ",
      "æī ĭ",
      "è Ī",
      "ç Ĺ",
      "å® ¹",
      "åºĶ çĶ¨",
      "å §",
      "è¿Ļ ç¯ĩæĸĩç«ł",
      "æ ¶",
      "åı Ĺ",
      "åĮħ æĭ¬",
      "æ¸ ¸",
      "éĶ Ļ",
      "çŁ ¥",
      "æ¯ ı",
      "ç ¥",
      "å £",
      "äº ¤",
      "ä» »",
      "åĪ Ľ",
      "è¢ «",
      "åŁ Ł",
      "ä» ¶",
      "åĪ ©",
      "è´ ¨",
      "æĢ »",
      "ä¹ Ĳ",
      "æ± Ĥ",
      "ä½ į",
      "éĶ ®",
      "ä¹ ī",
      "é ©",
      "åı ª",
      "åĲ Ĺ",
      "åıĳ å±ķ",
      "é »",
      "å· ±",
      "åĩ ı",
      "åı ¸",
      "æ ¨",
      "åı¯ èĥ½",
      "è® º",
      "å»º è®®",
      "åİ Ł",
      "åº ·",
      "è§ Ĥ",
      "ä»ĸ ä»¬",
      "èĩª å·±",
      "åħ³ éĶ®",
      "æ º",
      "æĶ ¾",
      "æ ¼",
      "ä» Ĭ",
      "éĩį è¦ģ",
      "èĬ Ĥ",
      "æµ ģ",
      "å¹ ³",
      "æ²¡ æľī",
      "ı è¿°",
      "åħ³ äºİ",
      "ä¾ ĭ",
      "åĳ Ĭ",
      "äºº ç±»",
      "è® ¾",
      "æĺ Ł",
      "åĵ į",
      "å¤ ª",
      "å° ±",
      "åģ¥ åº·",
      "æĸ Ń",
      "é¢Ĩ åŁŁ",
      "åĨ ³",
      "è¿ ĳ",
      "çİ¯ å¢ĥ",
      "ä¸» è¦ģ",
      "è¯ Ĺ",
      "æľ Ł",
      "åŁ İ",
      "è½ ¦",
      "è¯ ķ",
      "è¯ Ĩ",
      "ä¹ ¦",
      "æĽ´ åĬł",
      "è £",
      "çĸ Ĺ",
      "ä¸ ĸ",
      "é ª",
      "è İ",
      "ç Į",
      "è Ħ",
      "éŁ ³",
      "ĺ è¦ģ",
      "åģ ļ",
      "åħ¬ åı¸",
      "è ĥ",
      "çŁ Ń",
      "è¿Ļ äºĽ",
      "ç¼ ĸ",
      "çĪ ±",
      "æĢ Ŀ",
      "ç ²",
      "æĹ¶ éĹ´",
      "ç© º",
      "éĢļ è¿ĩ",
      "æĹ ħ",
      "è¾ ¾",
      "è ı",
      "æĻ ¯",
      "å· ²",
      "å¸® åĬ©",
      "é ¤",
      "æī ¾",
      "æŃ ¥",
      "ç» Ł",
      "å½± åĵį",
      "æł ¼",
      "æı ıè¿°",
      "å® ī",
      "å¤© æ°Ķ",
      "åĽł ä¸º",
      "çĶ ±",
      "ç¤ ¾",
      "é¤ Ĳ",
      "æ¨ ¡",
      "èĲ ½",
      "ãĢĤ âĢĿ",
      "èĬ ±",
      "æ· ±",
      "è¯Ń è¨Ģ",
      "é¢ Ħ",
      "é Ĵ",
      "å¥ ¹",
      "æľ į",
      "å¼ º",
      "çĶŁ æ´»",
      "è ±",
      "æĸ Ļ",
      "è¿ Ĳ",
      "åĵ ª",
      "å¸ ¦",
      "æŀ ģ",
      "å½ ¢",
      "æķ Ī",
      "åı £",
      "èĩª çĦ¶",
      "ï¼ ģ",
      "æł ·",
      "æľª æĿ¥",
      "æĬ ¤",
      "å°ı æĺİ",
      "ä¸Ģ ä¸ĭ",
      "åħ ī",
      "ç½ ĳ",
      "é¦ ĸ",
      "æĮ ĩ",
      "ç ¿",
      "çķ Į",
      "æ¸ ħ",
      "æº Ĳ",
      "åĪ Ĺ",
      "å± ±",
      "åİ Ĩ",
      "å·¥ ä½ľ",
      "é ĵ",
      "è¾ ĵ",
      "æķ° æį®",
      "ç»Ļ æĪĳ",
      "æľ Ī",
      "çº ¢",
      "åķ Ĩ",
      "å¤ Ł",
      "åı ĭ",
      "æ³ ¨",
      "ä¸į åĲĮ",
      "åĩ ł",
      "é ¸",
      "æĭ ©",
      "æ ļ",
      "ï¼ Ľ",
      "ç»Ļå®ļ çļĦ",
      "ç» Ħ",
      "å¦Ĥ ä½ķ",
      "çİ¯ ä¿Ŀ",
      "æ¬ ¡",
      "éĢī æĭ©",
      "ç ¦",
      "åĳ ĺ",
      "çº ¦",
      "æ £",
      "ç® ¡",
      "éĩ ĳ",
      "ä¸Ń æıĲåıĸ",
      "åĳ ³",
      "æľº åĻ¨",
      "ç Ĭ",
      "éĺ ³",
      "æĪ ·",
      "æĳ ĺè¦ģ",
      "æıĲ é«ĺ",
      "éĢ ł",
      "åĮ º",
      "çĹ ħ",
      "å¿ «",
      "åĲ «",
      "å¯ ¼",
      "èĢ ĥ",
      "å®ĥ ä»¬",
      "é¡ ¹",
      "æ¸ ©",
      "çļĦæ ķ",
      "åĲ Ħ",
      "åĲ ĥ",
      "æĸ¹ æ³ķ",
      "ä¼ ł",
      "ä¸» é¢ĺ",
      "çł Ķ",
      "å¹ ¿",
      "æĸ¹ å¼ı",
      "åı ¤",
      "çĭ Ĺ",
      "åĲ ĳ",
      "è®¡ ç®Ĺ",
      "æĺ¯ ä¸Ģä¸ª",
      "ç¤ º",
      "è¯ »",
      "å° ½",
      "æĬ ¥",
      "ä¸Ń åĽ½",
      "åĲĮ æĹ¶",
      "åı¥ è¯Ŀ",
      "å® Į",
      "ä¼ ĺ",
      "ä»¥ åıĬ",
      "ä» ·",
      "è® ¤",
      "ç» Ń",
      "è Į",
      "åįķ è¯į",
      "åĪ° äºĨ",
      "åĩ Ĩ",
      "åħ ±",
      "åĽŀ çŃĶ",
      "ä¸¤ ä¸ª",
      "ç¬ ¬",
      "è° ĥ",
      "æĸ¹ éĿ¢",
      "ä¸ Ķ",
      "åºĶ è¯¥",
      "èı ľ",
      "åŁİ å¸Ĥ",
      "ä¸ĸ çķĮ",
      "åŁ º",
      "è§ Ĩ",
      "è ¥",
      "Â ·",
      "åħ ĭ",
      "æĪ ĺ",
      "è§ ī",
      "å§ ĭ",
      "åĨħ å®¹",
      "å¢ ŀ",
      "è¯ ī",
      "èį Ĳ",
      "åı ²",
      "åĩı å°ĳ",
      "è¯ Ħ",
      "ä¹ °",
      "è¥ ¿",
      "ç© ¶",
      "è½ »",
      "æĺ ĵ",
      "è¯ ¯",
      "äºº ä»¬",
      "ä¿Ŀ æĬ¤",
      "èĥ½ å¤Ł",
      "åĢ Ļ",
      "è¶ £",
      "ä»Ĭ å¤©",
      "è® ¸",
      "åŃ ĺ",
      "å¼ ķ",
      "ä¾ĭ å¦Ĥ",
      "åĮ» çĸĹ",
      "è¶ Ĭ",
      "æŁ ¥",
      "çİ° åľ¨",
      "æİ¨ èįĲ",
      "åĲ ¦",
      "ä½¿ åħ¶",
      "åħ¶ ä»ĸ",
      "æŃ Į",
      "åĮ Ĺ",
      "å¤ į",
      "åĳĬ è¯ī",
      "æ Ĳ",
      "æİ ¥",
      "èµ Ħ",
      "æĪĸ èĢħ",
      "äºĨ ä¸Ģ",
      "åĬ Ł",
      "å® ¢",
      "ç« ĭ",
      "åĳ ¨",
      "ç»Ļ åĩº",
      "çłĶ ç©¶",
      "æµ ĭ",
      "çĻ ½",
      "é¥ ®",
      "è¶ ³",
      "åħ ĥ",
      "åĪĨ ç±»",
      "å¤ ĩ",
      "ä»¥ä¸ĭ åı¥åŃĲ",
      "å ²",
      "å ĥ",
      "æĸ ¯",
      "åĽ Ń",
      "çĥ Ń",
      "å¤ ´",
      "å Ķ",
      "èĩ ´",
      "çĶ ·",
      "2 0",
      "æķ Ļ",
      "ç³ ĸ",
      "çŃĶ æ¡Ī",
      "åĽł æŃ¤",
      "è· ¯",
      "èģ Ķ",
      "è ĳ",
      "ç ħ",
      "çľ Ł",
      "æĢ ģ",
      "å¤Ħ çĲĨ",
      "åį ģ",
      "éĶĻ è¯¯",
      "éĹ »",
      "ç´ ł",
      "æŀ Ĳ",
      "æİ Ĵ",
      "ï¼ļ âĢľ",
      "æİ ¢",
      "äº Į",
      "æ» ¡",
      "çİ ĩ",
      "æľ Ľ",
      "¹ æŀľ",
      "ç¥ ŀ",
      "æłĩ é¢ĺ",
      "åĨ į",
      "æľ ĭ",
      "éĹ ¨",
      "èĭ ¹æŀľ",
      "åħ¨ çĲĥ",
      "ä» ½",
      "ç» Ĩ",
      "æĸ ½",
      "å¥ ³",
      "åı Ĥ",
      "æ¬ ¾",
      "å¾Ī å¤ļ",
      "æĶ ¿",
      "ä½Ĩ æĺ¯",
      "åı ·",
      "çº ¿",
      "åĪĨ æŀĲ",
      "æĺ¯ ä»Ģä¹Ī",
      "æĶ ¯",
      "ç ı",
      "ä¾ ¿",
      "ä¸ª äºº",
      "ä¿ ®",
      "è± ¡",
      "ä¸ĭ éĿ¢",
      "ï¼ ī",
      "è° ¢",
      "å·² ç»ı",
      "ç§ °",
      "çĽ¸ åħ³",
      "çī ĩ",
      "æľĭ åıĭ",
      "ç§ĳ æĬĢ",
      "ç² ¾",
      "éª Į",
      "æ ¢",
      "èĻ ĳ",
      "åĽ ¾",
      "æī ĵ",
      "å° Ŀ",
      "åĨ µ",
      "æ´ ģ",
      "åĥ ı",
      "æĬ Ĭ",
      "æĹł æ³ķ",
      "çĮ «",
      "éĩ ĩ",
      "ä» ĭ",
      "è§ ģ",
      "èİ ·",
      "åŃ £",
      "ç§ ¯",
      "å ¡",
      "åħ Ī",
      "è¿Ĳ åĬ¨",
      "æĽ´ å¤ļ",
      "åĪ Ĵ",
      "çĶŁæĪĲ ä¸Ģä¸ª",
      "çļĦ åı¥åŃĲ",
      "ãĢĤ \\",
      "éļ ¾",
      "ç´ ¢",
      "ä¹ĭ ä¸Ģ",
      "éĤ£ ä¹Ī",
      "æĿ ¾",
      "åĲ ¬",
      "æĿ ¡",
      "åĳĬè¯ī æĪĳ",
      "æķ ´",
      "æľĢ è¿ĳ",
      "çļĦæ ĥ",
      "åº ı",
      "äº ¬",
      "æĻ ļ",
      "åĬ¨ çī©",
      "è®¸ å¤ļ",
      "èĭ ±",
      "ä¿Ŀ æĮģ",
      "å¸ ĥ",
      "æ¼ Ķ",
      "åħ³éĶ® è¯į",
      "1 0",
      "åħ· ä½ĵ",
      "äº§ åĵģ",
      "æĸĩ æ¡Ī",
      "åħ¶ ä¸Ń",
      "è® °",
      "å¤ ı",
      "èĩªå·± çļĦ",
      "ï¼Ł <|",
      "æĪĳ æĥ³",
      "éĢ Ł",
      "è§ Ħ",
      "æ´» åĬ¨",
      "æĸ° çļĦ",
      "åı į",
      "ä½ł çļĦ",
      "æĸĩ åĮĸ",
      "è¾ ĳ",
      "æĪĳ çļĦ",
      "ħ äºĭ",
      "å ¦",
      "äº Ķ",
      "éĻ ©",
      "æĶ ¶",
      "è´ Ń",
      "é© ¬",
      "ä¸Ģ æ®µ",
      "æĢ» ç»ĵ",
      "åħ ´",
      "çĭ ¬",
      "ç§ ĭ",
      "åİĨ åı²",
      "çļĦ äºº",
      "åĳ ½",
      "è¾ĵ åħ¥",
      "åį Ĺ",
      "æŁ ĵ",
      "éŁ³ ä¹Ĳ",
      "ç ¢",
      "æį ¢",
      "ï¼ Ī",
      "åĪ Ļ",
      "æīĢ æľī",
      "çĽ ´",
      "æĺ¯ä¸Ģ ç§į",
      "æ¨¡ åŀĭ",
      "è® ²",
      "èĢ ģ",
      "ä½ İ",
      "éļ ı",
      "éĽ ¨",
      "èĩ ³",
      "åĢ ¼",
      "ç³» ç»Ł",
      "æ¶ Ī",
      "æī į",
      "è§£ åĨ³",
      "æĸ° éĹ»",
      "èµ Ľ",
      "å ĭ",
      "è½ ¬",
      "åıĺ åĮĸ",
      "å½ĵ çĦ¶",
      "ç¤¾ ä¼ļ",
      "çļĦæ Ħ",
      "é¦ Ļ",
      "è¾ ĥ",
      "æ ħ",
      "éħ į",
      "ä¸ ľ",
      "ç» į",
      "è¶ ħ",
      "åį İ",
      "çĬ ¶",
      "ä¸ ½",
      "åĲ ¸",
      "è® ¨",
      "æľį åĬ¡",
      "æĹ ©",
      "è¦ģ æ±Ĥ",
      "ç¿ »",
      "å£ «",
      "ä»» åĬ¡",
      "æ² »",
      "å¼ ł",
      "æĪĳä»¬ çļĦ",
      "çŃī çŃī",
      "ç» ĥ",
      "å¤ ±",
      "ä»ĭ ç»į",
      "èº« ä½ĵ",
      "èĤ ²",
      "è®¾ è®¡",
      "è¡ £",
      "éĩ Ĭ",
      "åĳ ¢",
      "æľºåĻ¨ åŃ¦ä¹ł",
      "ç¾İ åĽ½",
      "åĽ Ľ",
      "çļĦ ä¿¡æģ¯",
      "å°Ŀ è¯ķ",
      "éĺ Ł",
      "ç§ĳ åŃ¦",
      "æŀ Ħ",
      "åİ ħ",
      "è®¡ç®Ĺ æľº",
      "å ¨",
      "çļĦ éĹ®é¢ĺ",
      "åıĳ çİ°",
      "æ ¦Ĥ",
      "A I",
      "å¸¦ æĿ¥",
      "äº «",
      "æ° ĳ",
      "æĹħ æ¸¸",
      "é ²",
      "æĪĲ ä¸º",
      "å®ī åħ¨",
      "è®¤ ä¸º",
      "è Ľ",
      "è£ ħ",
      "åħ ħ",
      "æīĢ ä»¥",
      "å° Ķ",
      "åį ³",
      "çŁ¥ éģĵ",
      "è¯Ĩ åĪ«",
      "çŃ ĸ",
      "å°ı è¯´",
      "æĿ Ĳ",
      "åħ· æľī",
      "éĢĤ åĲĪ",
      "æ ¤",
      "æŃ¤ å¤ĸ",
      "èĲ ¥",
      "çļĦæĥ ħ",
      "è§ Ĵ",
      "æĺ ¥",
      "éĺ ²",
      "å¿ ħ",
      "åĬ ¿",
      "æ¯Ķ å¦Ĥ",
      "è¡¨ è¾¾",
      "è ħ",
      "å Ħ",
      "ç© ¿",
      "æĺ¯ åĲ¦",
      "æĭ ī",
      "ç®Ģ æ´ģ",
      "ç¼ĸ è¾ĳ",
      "æ ½",
      "ä½ł åı¯ä»¥",
      "ç ª",
      "çļĦ ä¸Ģ",
      "æŃ£ åľ¨",
      "è¾ ¹",
      "åį ĩ",
      "çħ §",
      "æĤ¨ åı¯ä»¥",
      "æļ ĸ",
      "çļĦ å½±åĵį",
      "ãĢĤ \"",
      "åİ ĭ",
      "èĤ ī",
      "æŀ Ĺ",
      "åľ° çĲĥ",
      "éĩį åĨĻ",
      "ç» ´",
      "åħ į",
      "æĥħ æĦŁ",
      "éĽ Ĩ",
      "ª æĸ½",
      "çģ «",
      "æĪ ¿",
      "ä¸ ĩ",
      "èĥ½ åĬĽ",
      "çĲĨ è§£",
      "æĺ ¾",
      "çİ ĭ",
      "¡ æŁĵ",
      "å£ °",
      "è¯ ĳ",
      "ä¹ĭ éĹ´",
      "çļĦæ Ĭ",
      "åı °",
      "å¼Ģ å§ĭ",
      "æĸĩç«ł ä¸ŃæıĲåıĸ",
      "çļĦæ ł",
      "è®¡ åĪĴ",
      "é» ĳ",
      "å· ´",
      "ä¸ ĵ",
      "è¿ ľ",
      "çļĦ ä¸»è¦ģ",
      "äº Ĵ",
      "æ®µ èĲ½",
      "ç¦ »",
      "ä¼ ¼",
      "çļĦ åºĶçĶ¨",
      "ç¿» è¯ĳ",
      "æĸĩç«ł ä¸Ń",
      "éĻ į",
      "èµ °",
      "å®ŀ ä½ĵ",
      "äºĨ è§£",
      "é¥® é£Ł",
      "å¤ª éĺ³",
      "èĳ Ĺ",
      "åĸ Ħ",
      "å¸® æĪĳ",
      "å¸ Į",
      "è´ ¹",
      "ä¸Ģ èµ·",
      "ä»ĸ çļĦ",
      "éĻ ¤",
      "æĦŁ åĪ°",
      "è¯Ń æ³ķ",
      "æ Ĵ",
      "æĢ İ",
      "å¯¼ èĩ´",
      "åŃĺ åľ¨",
      "äº ĳ",
      "ç§¯ æŀģ",
      "å¯ »",
      "æľī åħ³",
      "åĦ ¿",
      "éĶ Ģ",
      "çİ ©",
      "é¤Ĳ åİħ",
      "ç½ ®",
      "å· §",
      "æĪ ı",
      "é£ ŀ",
      "èī º",
      "çĦ¶ åĲİ",
      "äº ļ",
      "åº Ĺ",
      "é» Ħ",
      "åħ »",
      "ä½ľ ä¸º",
      "ç ĳ",
      "è¯· éĹ®",
      "è§Ĥ çĤ¹",
      "æ± ¡æŁĵ",
      "åĮĹ äº¬",
      "å¤§ çļĦ",
      "åĴ ĸ",
      "å¸Ĥ åľº",
      "å ł",
      "çĻ ¾",
      "å¤ ľ",
      "çī Ľ",
      "å¾ ·",
      "å®ŀ çİ°",
      "å¯¹ äºİ",
      "åı Ī",
      "èį ī",
      "æľī è¶£",
      "ä¸Ģ ç¯ĩ",
      "å¯ Į",
      "è ŀ",
      "æ³ Ľ",
      "çĶ »",
      "ä»¥ä¸ĭ æĸĩæľ¬",
      "éĻ ħ",
      "å¦Ĥæŀľ ä½ł",
      "ç Ĩ",
      "æĹħ è¡Į",
      "åķ ¡",
      "èĩª åĬ¨",
      "æĺ ¨",
      "å¸ Ī",
      "èĢĥ èĻĳ",
      "åĴĸ åķ¡",
      "ç¬ ¦",
      "ç» Ī",
      "éħ Ĵ",
      "æµ İ",
      "ç« Ļ",
      "èĽ ĭ",
      "çļĦ åľ°",
      "åĽ ´",
      "æ ¹",
      "è¿ĺ æľī",
      "ç®Ģ åįķ",
      "æī¾ åĪ°",
      "å®Į æĪĲ",
      "è¿Ļ æ®µ",
      "æĽ ¿",
      "æĤ¨ çļĦ",
      "ä» ¤",
      "çļĦæ °",
      "åĮħ åĲ«",
      "åĲĦ ç§į",
      "æĽ´ å¥½",
      "åŃ ©",
      "åı ¦",
      "æĪĳ åı¯ä»¥",
      "ä¸ ¾",
      "åĪ ¤",
      "åº ľ",
      "è§£ éĩĬ",
      "ç³ĸ æŀľ",
      "åĵª äºĽ",
      "ç» ¿",
      "çļĦ çĶµå½±",
      "çĶ¨ æĪ·",
      "åķĨ åĵģ",
      "æ°Ķ åĢĻ",
      "èģ Ĭ",
      "æĿ İ",
      "ä¸į æĸŃ",
      "é£Ł çī©",
      "æķ £",
      "å® ¤",
      "ç± ³",
      "ĳ æĪĺ",
      "èĥ½ æºĲ",
      "æł¹æį® ç»Ļå®ļçļĦ",
      "å¯ Ĩ",
      "ä¸ī ä¸ª",
      "çļĦ æĸĩæľ¬",
      "è ĵ",
      "æ³¨ æĦı",
      "äº¤ éĢļ",
      "ä¹Ł åı¯ä»¥",
      "èĪ Ĵ",
      "çĶ± äºİ",
      "åĩł ä¸ª",
      "èŀ į",
      "é¦ Ĩ",
      "ç» ĩ",
      "é ¾",
      "å¹¿ æ³Ľ",
      "å¿ µ",
      "æİ ªæĸ½",
      "å¹¶ ä¸Ķ",
      "çļĦ å¤©æ°Ķ",
      "å¾ ĭ",
      "çļĦ åıĳå±ķ",
      "åħ¬ åĽŃ",
      "ç»ı æµİ",
      "éĻ Ĳ",
      "èģ Į",
      "åī §",
      "æł ĳ",
      "ä¸Ģ ç§į",
      "èī² çļĦ",
      "æİ §",
      "ä¸į èĥ½",
      "é ±",
      "Ċ Ċ",
      "å¾ ®",
      "æŁ Ĳ",
      "ç±» åŀĭ",
      "å® Ŀ",
      "å± ħ",
      "çİ° ä»£",
      "åħ³ ç³»",
      "é± ¼",
      "éĺ ħ",
      "çļĦæ Ģ",
      "åĩĨ ç¡®",
      "è¯ ģ",
      "ä¸įåĲĮ çļĦ",
      "æĿ ¯",
      "è´ Ł",
      "æ ¿",
      "éĢļ å¸¸",
      "çĸ ¾",
      "æĭ ¥",
      "åĲį ç§°",
      "å¢ŀ åĬł",
      "å¸Į æľĽ",
      "æĪĲ åĬŁ",
      "æĽ ²",
      "çī Į",
      "èĻ ½",
      "è¿ ŀ",
      "è´¨ éĩı",
      "éĥ½ æĺ¯",
      "æ² Ļ",
      "å¾ Ģ",
      "æ ©",
      "çļĦæķ °",
      "è¿ĺ æĺ¯",
      "åı ¶",
      "ç¬ Ķ",
      "çļĦ éĩįè¦ģ",
      "å ³",
      "ä¼ ģ",
      "è¯ Ĭ",
      "å® ³",
      "ä¸º æĤ¨",
      "éĻ ¢",
      "ä»» ä½ķ",
      "å¹ ²",
      "æ ĵ",
      "ç®¡ çĲĨ",
      "èĩªçĦ¶ è¯Ńè¨Ģ",
      "çĿ ¡",
      "æ ¥",
      "åģ ĩ",
      "é¸ Ł",
      "è¿Ļ åı¥è¯Ŀ",
      "çļĦæĦ ı",
      "å¦Ĥæŀľ æĤ¨",
      "åĪ© çĶ¨",
      "åħ ¸",
      "èµ· æĿ¥",
      "ä»İ æĸĩç«łä¸ŃæıĲåıĸ",
      "äºº çļĦ",
      "æĥħ åĨµ",
      "é º",
      "è¯ ¢",
      "èİ· å¾Ĺ",
      "ç¨ĭ åºı",
      "ä¼ Ĺ",
      "æĢİ ä¹Ī",
      "ç»ĵ æŀľ",
      "æķĻ èĤ²",
      "è· ĳ",
      "æĮģ ç»Ń",
      "æķ ħäºĭ",
      "å± ŀ",
      "éĩį æĸ°",
      "éĩįè¦ģ çļĦ",
      "èĦ ĳ",
      "æĶ¿ åºľ",
      "éĺħ è¯»",
      "ç ĵ",
      "åŃ¦ çĶŁ",
      "çº ł",
      "éĿ Ļ",
      "çŁ ³",
      "éĿ Ĵ",
      "çĸ¾ çĹħ",
      "æŃ£ ç¡®",
      "é£İ æł¼",
      "0 0",
      "åĨ Ľ",
      "è½ ¯",
      "å· ŀ",
      "æµ ª",
      "éģ ¿",
      "åĩº çİ°",
      "äºĨ ä¸Ģä¸ª",
      "è¿Ļ ç§į",
      "å°½ ç®¡",
      "ä½¿åħ¶ æĽ´åĬł",
      "è® Ń",
      "ĥ åľ",
      "é Ĩ",
      "å¥ ĩ",
      "åŀ ĥåľ",
      "åŀĥåľ ¾",
      "éĩĩ åıĸ",
      "é¸ ¡",
      "å ª",
      "é ¼",
      "é¢ ľ",
      "åĬ ŀ",
      "ä¼ ĳ",
      "å¤ļ å°ĳ",
      "çļĦ æĸĩç«ł",
      "ç®Ĺ æ³ķ",
      "èĻ½ çĦ¶",
      "åĽ ¢",
      "çļĦæ Ļ",
      "è Ķ",
      "å¥ ¶",
      "çī Ī",
      "ãĢĤâĢĿ <|",
      "æĮ ī",
      "çº §",
      "é¢Ħ æµĭ",
      "æĬ ±",
      "æľī æķĪ",
      "ä»İ è¿Ļç¯ĩæĸĩç«ł",
      "èĵ Ŀ",
      "ä¸Ģ ä»½",
      "æĽ´å¥½ åľ°",
      "å°ı çº¢",
      "åº Ń",
      "åıĳ çĶŁ",
      "åĪ¶ ä½ľ",
      "æľ ¨",
      "äº ī",
      "åĮ» çĶŁ",
      "äººå·¥æĻºèĥ½ æĬĢæľ¯",
      "è¿Ļ æł·",
      "åĪ¤ æĸŃ",
      "è¯Ĭ æĸŃ",
      "ç¼ ĵ",
      "ç¦ ı",
      "åĳ ¼",
      "å° ¼",
      "ä¹ī è¯į",
      "ç»Ħ ç»ĩ",
      "ç» ľ",
      "äº§ çĶŁ",
      "å¾Ĺ åĪ°",
      "éĢ ģ",
      "æĸĩ åŃĹ",
      "ä» ħ",
      "ç¾İ ä¸½",
      "æĺ¨ å¤©",
      "æ¿ Ģ",
      "æĪĳä»¬ åı¯ä»¥",
      "æ¯Ķ èµĽ",
      "å° ļ",
      "æĺİ å¤©",
      "çĽ® æłĩ",
      "åĬ ª",
      "æ¸¸ æĪı",
      "ç®Ģ çŁŃ",
      "è´Ń ä¹°",
      "ä½ł èĥ½",
      "åĨ °",
      "æ¯ı ä¸ª",
      "äº ®",
      "ä¸Ģ åı¥è¯Ŀ",
      "åĲ §",
      "èī ¯",
      "ç¬ ĳ",
      "éľĢ æ±Ĥ",
      "åĿ ĩ",
      "çĸ «",
      "éģ ĩ",
      "èµĦ æºĲ",
      "çļĦæ İ",
      "åĬª åĬĽ",
      "ç½ Ĺ",
      "éĥ¨ åĪĨ",
      "é Ń",
      "æ°ĶåĢĻ åıĺåĮĸ",
      "ç½ĳ ç»ľ",
      "ç¤¾ äº¤",
      "é ŀ",
      "è¡Į ä¸º",
      "åİĭ åĬĽ",
      "è Ń",
      "è¯Ħ è®º",
      "æ£ Ģ",
      "æĪĲ è¯Ń",
      "æ´ ²",
      "è¿ İ",
      "çĽ Ĭ",
      "èĩªçĦ¶è¯Ńè¨Ģ å¤ĦçĲĨ",
      "æ¯Ķ è¾ĥ",
      "æ¦Ĥ æĭ¬",
      "å½ ©",
      "ä¸į æĺ¯",
      "èį ¯",
      "ä» į",
      "æ´ ĭ",
      "é² ľ",
      "ä¸ ¥",
      "çģ µ",
      "æīį èĥ½",
      "åį ¡",
      "è¾ĵ åĩº",
      "è¿ĩ ç¨ĭ",
      "å¾ ģ",
      "ä¼ģ ä¸ļ",
      "æĪĳ åĸľæ¬¢",
      "æ» ©",
      "çł ģ",
      "åı¤ è¯Ĺ",
      "ä¸Ģ é¦ĸ",
      "æĮ ĳæĪĺ",
      "çļĦæ ī",
      "äºĭ ä»¶",
      "çĶ¨ äºİ",
      "å½ Ĵ",
      "æĲ Ń",
      "æ¯ į",
      "æİ¢ ç´¢",
      "å¾ ħ",
      "èĪĴ éĢĤ",
      "ç¡® å®ļ",
      "è¿Ļ æĺ¯",
      "ä¸Ĭ çļĦ",
      "äº ²",
      "èĮ ĥ",
      "ç¾İ é£Ł",
      "é¢ĺ çĽ®",
      "åı¯èĥ½ ä¼ļ",
      "çĥ ¤",
      "è®² è¿°",
      "ä½ĵ éªĮ",
      "æľī ä»Ģä¹Ī",
      "çļĦ æĺ¯",
      "çļĦ æĸ¹æ³ķ",
      "çĤ ¼",
      "æĻ ®",
      "éĥ¨ çĶµå½±",
      "æĬ ķ",
      "æ ĩ",
      "ç¼ º",
      "æ² ¹",
      "ä¸ ´",
      "éĩ İ",
      "è¡¨ ç¤º",
      "åı¯ä»¥ å¸®åĬ©",
      "æ°´ æŀľ",
      "çŁ¥ è¯Ĩ",
      "çľ ¼",
      "çļĦæĬ Ģ",
      "ä¹Ł æĺ¯",
      "åĶ ®",
      "æĶ¹ åĨĻ",
      "ä½ľ çĶ¨",
      "æł ¡",
      "å®ĥ çļĦ",
      "æ¤ į",
      "åıĤ åĬł",
      "è®¨ è®º",
      "âĢĿ ï¼Į",
      "åĪ »",
      "ä»· æł¼",
      "çļĦæ ĳ",
      "ç¼ĸ ç¨ĭ",
      "æľī å¾Īå¤ļ",
      "è¯Ĺ æŃĮ",
      "è¿ ½",
      "å½ĵ åľ°",
      "æ± ½",
      "éģ¿ åħį",
      "çķ Ļ",
      "çł ´",
      "æ² ³",
      "è£ ¤",
      "èĥ ľ",
      "æ¢ ¦",
      "è¡¨ çİ°",
      "æĭ¥ æľī",
      "åĿ ļ",
      "æľĢ åĲİ",
      "éĺ ¿",
      "æĶ¹ åıĺ",
      "éŀ ĭ",
      "äººå·¥æĻºèĥ½ åľ¨",
      "åĬŁ èĥ½",
      "ä¸Ń å¿ĥ",
      "æ¯ı å¤©",
      "æĬ ½",
      "æ¼ «",
      "åĨ ¬",
      "æĸ¹ æ¡Ī",
      "åħ³ æ³¨",
      "æķĪ çİĩ",
      "æ³ ¢",
      "è¿Ļ æĺ¯ä¸Ģ",
      "æĿ Ĥ",
      "çĶµ åŃĲ",
      "åĪ ĩ",
      "çļ ®",
      "æ²» çĸĹ",
      "åİ» äºĨ",
      "è ľ",
      "ç¤ ¼",
      "è¯ ¦",
      "å± Ĥ",
      "çĶŁ æĢģ",
      "æĹ¶ åĢĻ",
      "åį ĥ",
      "éĤ ®",
      "æĶ¾ æĿ¾",
      "ç¡® ä¿Ŀ",
      "è ķ",
      "è¡Į åĬ¨",
      "åĿ Ĺ",
      "å¨ ģ",
      "âĢĿ ãĢĤ",
      "èĳĹ åĲį",
      "æĪĳ ä¼ļ",
      "åį Ī",
      "äº« åıĹ",
      "çļĦæł ĩ",
      "ç¥ ¨",
      "ä¸º ä»Ģä¹Ī",
      "è Ĵ",
      "æĽ¿ æį¢",
      "å°Ĩ åħ¶",
      "æ½ ®",
      "åĬł åħ¥",
      "è®Ń ç»ĥ",
      "å®¶ åºŃ",
      "ä¿® æĶ¹",
      "çľ ł",
      "é¡ »",
      "ä½ ³",
      "åĪĽ æĦı",
      "å½ĵçĦ¶ åı¯ä»¥",
      "ä¸Ĭ æľĢ",
      "å³ °",
      "äºº åĲį",
      "éĺ³ åħī",
      "çļĦ å»ºè®®",
      "èĶ ¬",
      "å Ĥ",
      "åĽ °",
      "ç ĩ",
      "çķ ħ",
      "å°± æĺ¯",
      "é£Ł åĵģ",
      "æĭ Ł",
      "çĽ® åīį",
      "æĽ´å¤ļ çļĦ",
      "åĪĽ éĢł",
      "ä¼ ¤",
      "èīº æľ¯",
      "é£İ éĻ©",
      "åİŁ åĽł",
      "æŃ ī",
      "ä¸Ģ åıª",
      "å¾Ī å¥½",
      "ä¸į éĶĻ",
      "æ· »",
      "åį «",
      "è¯· ä½ł",
      "ä½ ı",
      "çļĦæ µ",
      "æĿ¥ è¶Ĭ",
      "è¶ ĭ",
      "çĹ ĩ",
      "ä¸º äºĨ",
      "åĨ³ å®ļ",
      "é ¹",
      "çĦ ¦",
      "é¢ Ĺ",
      "åĵ Ī",
      "è¶Ĭ æĿ¥è¶Ĭ",
      "æ± Ł",
      "ä»İè¿Ļç¯ĩæĸĩç«ł ä¸ŃæıĲåıĸ",
      "æİ§ åĪ¶",
      "åº §",
      "è¡Į ä¸ļ",
      "é¥ Ń",
      "å® ĺ",
      "çª ģ",
      "çĽ ĳ",
      "èĥ Į",
      "å¹ »",
      "æ±½ è½¦",
      "æĶ¹ åĸĦ",
      "åī ©",
      "æĢ§ åĴĮ",
      "ç´ §",
      "é¢ľ èī²",
      "å¼ Ĥ",
      "ï¼ģ <|",
      "ç¿»è¯ĳ æĪĲ",
      "æĶ¯ æĮģ",
      "æĹ ¨",
      "çļĦæķ ħäºĭ",
      "åħ´ è¶£",
      "å¥ Ĺ",
      "è¡ ¡",
      "è¯¦ ç»Ĩ",
      "çĶŁ äº§",
      "çĶŁ åĳ½",
      "éĩĳ èŀį",
      "åĸ Ŀ",
      "éĶ »",
      "å¤ı å¤©",
      "äºĭ æĥħ",
      "ä¸ °",
      "ä¼ ¦",
      "çķ ¥",
      "éĴ ±",
      "ä½¿åħ¶ æĽ´",
      "éĹ ²",
      "çĶŁ çī©",
      "åĲį åŃĹ",
      "åĨĻ ä¸Ģä¸ª",
      "éĶ» çĤ¼",
      "çĪ± æĥħ",
      "èĶ¬ èıľ",
      "æĳ Ħ",
      "çı Ń",
      "åį °",
      "æīĭ æľº",
      "ä¹ĭéĹ´ çļĦ",
      "çĸ ĳ",
      "æľĢ ç»Ī",
      "ä»ĸä»¬ çļĦ",
      "æĸĩæľ¬ ä¸Ń",
      "æĬ± æŃī",
      "åª Ĵ",
      "è¿ĺ åı¯ä»¥",
      "çļĦæ Ń",
      "éĴ Ł",
      "ä¼ł ç»Ł",
      "ç»Ń åĨĻ",
      "æ¯ Ľ",
      "é¡ º",
      "åĩĨ å¤ĩ",
      "èĮ ¶",
      "é© ¾",
      "æıĲ åĪ°",
      "ä¸Ģ æ¬¡",
      "æĺİ äºĨ",
      "å½ ķ",
      "æıĲ åĩº",
      "åĨ ·",
      "åľº æĻ¯",
      "å¡ ĳ",
      "ä»Ģä¹Ī æĺ¯",
      "æĥ Ĭ",
      "ä¸ª èĭ¹æŀľ",
      "åŁº äºİ",
      "åľ Ł",
      "è¿Ļä¸ª éĹ®é¢ĺ",
      "é¢ ĳ",
      "åĪ ļ",
      "è¶ĭ åĬ¿",
      "åı Į",
      "æĥ³ è¦ģ",
      "æĲ ľ",
      "å² ģ",
      "è®© æĪĳ",
      "åį ļ",
      "åıĺ å¾Ĺ",
      "å¯» æī¾",
      "åĵģ çīĮ",
      "ä¸ĵ ä¸ļ",
      "æĦı æĢĿ",
      "æ¸ħ æĻ",
      "è´ £",
      "åĩ »",
      "ä¸¤ä¸ª åı¥åŃĲ",
      "æľ Ĺ",
      "æ·± åº¦",
      "åĪ Ŀ",
      "åı¦ å¤ĸ",
      "æľ «",
      "å¿ĥ çĲĨ",
      "æĪĳä»¬ éľĢè¦ģ",
      "çļĦæ ¸",
      "åıĹ åĪ°",
      "åĿ Ĳ",
      "ç½ĳ ç«Ļ",
      "æĤ £",
      "æ± ĩ",
      "éĵ ģ",
      "åº ķ",
      "æķ° åŃĹ",
      "æľ¬ ä¹¦",
      "åı¯ æĮģç»Ń",
      "æĬ¥ éģĵ",
      "ä¿ ĥ",
      "æ¯ı ä¸ªäºº",
      "æľ¬ æĸĩ",
      "å¤§ éĩı",
      "ç¾ ¤",
      "é© ¶",
      "æĭ ¼",
      "åħħ æ»¡",
      "è¿Ļ éĥ¨çĶµå½±",
      "è¿Ļä¸ª åı¥åŃĲ",
      "è§ī å¾Ĺ",
      "å¥ ¥",
      "å± Ģ",
      "æıĲåıĸ åĩº",
      "ä½ľ èĢħ",
      "èŃ ¦",
      "çļĦ åħ³éĶ®",
      "å ©",
      "å· ¨",
      "ä¼ļ è®®",
      "æ¬ §",
      "éĽ ª",
      "å® £",
      "çŁŃ è¯Ń",
      "æľĢ åĸľæ¬¢",
      "é¾ Ļ",
      "çº ª",
      "ç» Ŀ",
      "ä»İ èĢĮ",
      "æŃ ¢",
      "1 9",
      "éļ Ĳ",
      "è° ģ",
      "çľ ģ",
      "é¡¹ çĽ®",
      "å·¥ åħ·",
      "åķĨåĵģ æĸĩæ¡Ī",
      "éĤ® ä»¶",
      "åĪĽ æĸ°",
      "åĩº å¤Ħ",
      "æķ ħ",
      "ç»Ļå®ļ ä¸Ģä¸ª",
      "è´Ł éĿ¢",
      "åľ° åĮº",
      "ç» ª",
      "è Ĺ",
      "èĪ ŀ",
      "åĮ» åŃ¦",
      "çī¹ åĪ«",
      "è ĸ",
      "åªĴ ä½ĵ",
      "éĢī é¡¹",
      "å®ļ çļĦ",
      "ç»ĵ æŀĦ",
      "éĵ ¶",
      "ç©º æ°Ķ",
      "ä¸į ä¼ļ",
      "è¶ħ è¿ĩ",
      "æķ° åŃ¦",
      "æıĲä¾Ľ ä¸Ģä¸ª",
      "éĢ ı",
      "æĿ ĥ",
      "ä¾ Ŀ",
      "æĪĲè¯Ń åĩºå¤Ħ",
      "èĢĮ ä¸Ķ",
      "éĴ Ī",
      "çº ½",
      "å¿ Ĺ",
      "æĿĲ æĸĻ",
      "çľĭ åĪ°",
      "ä»ĭç»į äºĨ",
      "è¯· åĳĬè¯īæĪĳ",
      "Ġ \"",
      "æ± ī",
      "åĨ ľ",
      "éĢł æĪĲ",
      "ä½ľ åĵģ",
      "çĶµ è§Ĩ",
      "é«ĺ çļĦ",
      "æĪĳ æĹłæ³ķ",
      "èĪ ª",
      "éĢ Ĳ",
      "èĲ ¨",
      "æ¬¢ è¿İ",
      "éĩĩ çĶ¨",
      "çļĦæ ı",
      "ç§ ĺ",
      "æľ Ŀ",
      "æĹ¶ å°ļ",
      "æŁ Ķ",
      "å¼Ģ åıĳ",
      "å¿ħ é¡»",
      "åį ´",
      "ä½į ç½®",
      "ç ¹",
      "çļĦæ ¯",
      "åĽł ç´ł",
      "æĢ§ çļĦ",
      "ä¹ ħ",
      "ç»Ļåĩº ä¸Ģä¸ª",
      "é¢Ħ æĬ¥",
      "æ¸ Ĳ",
      "æ³ ³",
      "åĲ¸ å¼ķ",
      "å½¢ å®¹",
      "ä»· åĢ¼",
      "å±ŀ äºİ",
      "çļĦæ Ķ",
      "æħ ¢",
      "è°¢ è°¢",
      "ä¸Ĭ æµ·",
      "æıĲ åĪ°äºĨ",
      "éĢĤ å½ĵ",
      "åħ °",
      "çļĦæĳ ĺè¦ģ",
      "ç»ı åħ¸",
      "è¿Ļ æĺ¯ä¸Ģä¸ª",
      "å®¢ æĪ·",
      "æİ¢ è®¨",
      "æ© Ļ",
      "æ¸ħæĻ °",
      "æľºåĻ¨ äºº",
      "åİŁ å§ĭ",
      "å¤ «",
      "éļı çĿĢ",
      "æĲľ ç´¢",
      "çº ³",
      "åį ı",
      "åŃ© åŃĲ",
      "è ª",
      "åģ¥ èº«",
      "æŃ »",
      "çĦ¦ èĻĳ",
      "å¤§ åĪ©",
      "çĽ ĸ",
      "ä¼ ½",
      "åį Ĭ",
      "éĻį ä½İ",
      "ç§ ģ",
      "åĬł å¼º",
      "å¹ ¸",
      "çĿ¡ çľł",
      "æĬ½ åıĸ",
      "æĥ ¯",
      "å»º ç«ĭ",
      "è®¾ å¤ĩ",
      "ç¬¬ äºĮ",
      "èĩª çĶ±",
      "åĳ¼ åĲ¸",
      "æīĢæľī çļĦ",
      "åħ± åĲĮ",
      "çĳ ľ",
      "æ¯ Ĵ",
      "çº½ çº¦",
      "åŃ ¤",
      "èģĶ ç½ĳ",
      "è´ ¢",
      "éĶĢ åĶ®",
      "çļĦæĥħ æĦŁ",
      "éĻ Ī",
      "é¦ĸ åħĪ",
      "åľ° çĤ¹",
      "æ¥ ¼",
      "æ·» åĬł",
      "çļĦ ä¸»é¢ĺ",
      "åĵª ä¸ª",
      "ä¸į ä»ħ",
      "çŃ ĳ",
      "åıĺ æļĸ",
      "èĤ ¡",
      "èģ ļ",
      "éĥ½ æľī",
      "å· ®",
      "çŃī æĸ¹éĿ¢",
      "çļĦ è¯Ŀ",
      "åħ Ń",
      "åı «",
      "ä¸Ģ çĽ´",
      "æĮī çħ§",
      "çĭ¬ çī¹",
      "å¡ĳ æĸĻ",
      "çĳľ ä¼½",
      "çĻ »",
      "ä¸Ģ æŃ¥",
      "è° Ī",
      "æ¶ ī",
      "ä¸Ģ ç¯ĩæĸĩç«ł",
      "åħ¬åı¸ çļĦ",
      "åľ¨ å®¶",
      "ä»¤ äºº",
      "ç» §",
      "äººå·¥æĻºèĥ½ çļĦ",
      "å½¢ å¼ı",
      "è´Ń çī©",
      "ä»¥ ä¾¿",
      "è± Ĩ",
      "æķ£ æŃ¥",
      "æ¸© åº¦",
      "ãĢĭ ãĢģ",
      "çĽ¸ åĲĮ",
      "å¿« éĢŁ",
      "» åĬ¨",
      "è¯Ń éŁ³",
      "ä¸° å¯Į",
      "å® ĩ",
      "æĿ¥ è¯´",
      "ä»£ è¡¨",
      "çī¹ çĤ¹",
      "âĢ Ķ",
      "æĽ ¾",
      "çĶŁæĪĲ åķĨåĵģæĸĩæ¡Ī",
      "çļĦæ Į",
      "å°ıæĺİ æľī",
      "æī §",
      "çģ ¾",
      "æ¤į çī©",
      "ç¾İ åĳ³",
      "åĲ« ä¹ī",
      "è¡ Ĺ",
      "5 0",
      "ä¹ł æĥ¯",
      "ç² ī",
      "çļĦ çĶŁæ´»",
      "æĺ¯ æĮĩ",
      "èĻ ļ",
      "åį ±",
      "è¯į è¯Ń",
      "æµģ çķħ",
      "ç¼ĵ è§£",
      "æĢĿ èĢĥ",
      "å¯ Ĵ",
      "æĺ¯ åľ¨",
      "å¤į æĿĤ",
      "é©¾ é©¶",
      "æĹ¥ æľ¬",
      "çģ ¯",
      "çī¹ å¾ģ",
      "èĭ± è¯Ń",
      "å°Ĩ ä»¥ä¸ĭ",
      "çļĦæķ° æį®",
      "ç¢ ³",
      "æĹ© ä¸Ĭ",
      "å¹´ è½»",
      "ä»¥ä¸ĭ æĺ¯",
      "åĬ© äºİ",
      "åĲį è¯į",
      "ç»ı å¸¸",
      "æĿ ¿",
      "ç»ĥ ä¹ł",
      "åĽ¾ åĥı",
      "æľº ä¼ļ",
      "çļĦæ ²",
      "ç»ı åİĨ",
      "æ¸¸ æ³³",
      "çºł éĶĻ",
      "åĽ½ å®¶",
      "å»º çŃĳ",
      "åħ± æľī",
      "è®© äºº",
      "ç¹ ģ",
      "çĶ ľ",
      "ä¸Ģ ä½į",
      "éľ ²",
      "æĭ ¿",
      "æĦŁ è§ī",
      "ä½į äºİ",
      "åģļ åĩº",
      "å¯¹ è¯Ŀ",
      "æ£ Ĵ",
      "ãĢĭãĢģ ãĢĬ",
      "åº Ĭ",
      "åŃ¦ æł¡",
      "ä¸ĸçķĮ ä¸ĬæľĢ",
      "çĨ Ĭ",
      "æ°Ķ æ¸©",
      "è¡Į æĺŁ",
      "æ·±åº¦ åŃ¦ä¹ł",
      "èģĮ ä¸ļ",
      "çļĦæĦı æĢĿ",
      "æ° §",
      "æ´ Ĺ",
      "åĪĽ å»º",
      "ç³ ķ",
      "åĪ¶ å®ļ",
      "è¿ ·",
      "æł¹æį® ä»¥ä¸ĭ",
      "çļĦæĦ Ł",
      "åĲĮ ä¹īè¯į",
      "æľīè¶£ çļĦ",
      "æİĴ æĶ¾",
      "ç« ¯",
      "åĬ ±",
      "æķ° éĩı",
      "å¼º è°ĥ",
      "è¯· æıĲä¾Ľ",
      "è· Ł",
      "å° Ħ",
      "åģ ľ",
      "è¿Ļæ®µ æĸĩæľ¬",
      "è¯ ¾",
      "è¯· ç»ĻæĪĳ",
      "ä¼ĳ éĹ²",
      "è¯Ńè¨Ģ æ¨¡åŀĭ",
      "è¿ĩ åİ»",
      "æĬĢ å·§",
      "ä¸ĭ åĪĹ",
      "ä½¿ å¾Ĺ",
      "ä»İæĸĩç«łä¸ŃæıĲåıĸ åĩº",
      "æĦı è¯Ĩ",
      "åĢ¼ å¾Ĺ",
      "ä½ Ļ",
      "å¥ ĸ",
      "å°Ĩ ä¼ļ",
      "è¿Ļ ç¯ĩ",
      "éŁ ©",
      "é¡ ¿",
      "çļĦ å°ı",
      "çļĦ ä¸»",
      "åĲĪ éĢĤ",
      "çļĦ æľĢ",
      "æĦı ä¹ī",
      "éĵ ħ",
      "å² Ľ",
      "ä» ĺ",
      "åĢ ĭ",
      "çļĦæĬĢ æľ¯",
      "èĪ ¬",
      "ä¹ Ŀ",
      "å¤§ åŃ¦",
      "ä¸ĭ æĸĩ",
      "åı£ åĳ³",
      "åľ¨ è¿Ļä¸ª",
      "æĦ ī",
      "è´ µ",
      "è¯Ńæ³ķ éĶĻè¯¯",
      "å® ł",
      "æ¹ ĸ",
      "åĪĹ è¡¨",
      "è¡ Ģ",
      "å¿« ä¹Ĳ",
      "æľī åĬ©äºİ",
      "ç§ĳåŃ¦ å®¶",
      "æľī ä¸Ģä¸ª",
      "çļĦ åįķè¯į",
      "åħ¨çĲĥ åıĺæļĸ",
      "ä¸Ģ ç»Ħ",
      ". .",
      "è ¸",
      "èĦ ļ",
      "æ£Ģ æŁ¥",
      "åĨ³ çŃĸ",
      "æĻļ ä¸Ĭ",
      "ä¼ ´",
      "åĩ ī",
      "æĪĳ ä¸į",
      "å· ¦",
      "çĶµ èĦĳ",
      "æĸ¹ åĲĳ",
      "çŃī é¢ĨåŁŁ",
      "æĦ ¿",
      "ä¸¥ éĩį",
      "éĿ ©",
      "çĮ ®",
      "10 0",
      "åı¯ä»¥ éĢļè¿ĩ",
      "æĭ¼ åĨĻ",
      "å¿ ĺ",
      "çļĦéĩįè¦ģ æĢ§",
      "éĵ ¾",
      "æĭ ħ",
      "ç« ¥",
      "ç»ı éªĮ",
      "çļĦ å¥½",
      "å®¹ æĺĵ",
      "æĹ¥ æľŁ",
      "ç¡ Ģ",
      "é¢ Ŀ",
      "\" <|",
      "äº¤ æµģ",
      "è¢ ĭ",
      "åŁº ç¡Ģ",
      "éĵħ ç¬Ķ",
      "ç± į",
      "ä¿ĥ è¿Ľ",
      "ä¸į è¿ĩ",
      "è· Ŀ",
      "ç§ĳ å¹»",
      "çī© åĵģ",
      "èĢ Ĳ",
      "çŁŃ æĸĩ",
      "_ _",
      "èģĶ ç³»",
      "æĸĩ åŃ¦",
      "å¤ļ ä¸ª",
      "åģ ı",
      "è¿Ļ å®¶",
      "æĪĳ å¾Ī",
      "è¿Ļ éĩĮ",
      "çĥ Ī",
      "è° ·",
      "èĲ¥ åħ»",
      "åĨ ł",
      "çĽ¸ ä¼¼",
      "è Ŀ",
      "ä» ¿",
      "éĽ ħ",
      "æŃ£ éĿ¢",
      "æĪ· å¤ĸ",
      "èİ· åıĸ",
      "å¸¸ è§ģ",
      "ä¸į è¦ģ",
      "ä»į çĦ¶",
      "è´ §",
      "çļĦæ ´",
      "å°ı æĹ¶",
      "ä¸į åı¯",
      "æĬĢ èĥ½",
      "åħĭ åĬĽ",
      "åī© ä¸ĭ",
      "çļĦæłĩ é¢ĺ",
      "çļĦ åĨħå®¹",
      "å¢ŀ å¼º",
      "ç®Ģæ´ģ æĺİäºĨ",
      "è¯Ħ ä»·",
      "æĲŃ éħį",
      "éĢŁ åº¦",
      "åı ³",
      "åĿ ı",
      "å·§ åħĭåĬĽ",
      "æ² ī",
      "åİ ļ",
      "çļĦæ° Ķ",
      "è¡¨ æĺİ",
      "çļĦæ° ´",
      "ä¸Ģ å®ļ",
      "çľĭ çĶµå½±",
      "å¤ı åŃ£",
      "æĪĳ éľĢè¦ģ",
      "æļ ´",
      "1 2",
      "æĬ¥ åĳĬ",
      "ç¼ĸ åĨĻ",
      "é» İ",
      "è¯į æ±ĩ",
      "çļĦä¸»è¦ģ è§ĤçĤ¹",
      "éĨ Ĵ",
      "åıĹ æ¬¢è¿İ",
      "çİ¯å¢ĥ ä¿ĿæĬ¤",
      "æµ· æ´ĭ",
      "å® ½",
      "å® «",
      "åľ Ĩ",
      "ç £",
      "åŁº æľ¬",
      "ç»¿ èī²",
      "åĪĽ ä½ľ",
      "èµ ı",
      "çī© è´¨",
      "ä¸ĭ æĿ¥",
      "é¼ ĵ",
      "è½¯ ä»¶",
      "åħ «",
      "å¿ Ĩ",
      "åĳ¨ æľ«",
      "ç§ Ģ",
      "æĹ ı",
      "äºº åĳĺ",
      "æĿ¡ ä»¶",
      "å½ĵ åīį",
      "æ£ ®",
      "åĭ ĩ",
      "äºĨ ä¸ĢäºĽ",
      "å®ł çī©",
      "ä¸ ĥ",
      "ç¤¾äº¤ åªĴä½ĵ",
      "æľī äºĽ",
      "å¤ļ ç§į",
      "æĿ ĳ",
      "æ°´ å¹³",
      "è· ³",
      "éĻ Ħ",
      "çİ ī",
      "ç³» åĪĹ",
      "é¥ °",
      "åĨ Ĵ",
      "æĴ Ń",
      "åĪĹ åĩº",
      "æ» ĳ",
      "åĨĻ ä½ľ",
      "æ¶ī åıĬ",
      "è§Ĩ è§ī",
      "ä¹ ĺ",
      "è®© ä½ł",
      "åĲĪ ä½ľ",
      "åĲĮæĹ¶ ä¹Ł",
      "æĻ¯ çĤ¹",
      "çļĦ é£Łçī©",
      "éĢ Ķ",
      "1 8",
      "æĹ¥ å¸¸",
      "èĮĥ åĽ´",
      "ç»§ ç»Ń",
      "å¹³ è¡¡",
      "ç« ŀ",
      "æĽ´ å¥½çļĦ",
      "åħ¶ ä¸ŃçļĦ",
      "æ´ ŀ",
      "ç¬¬ ä¸Ģ",
      "è¯· æıĲåıĸ",
      "çļĦåľ° æĸ¹",
      "åı£ æĦŁ",
      "äºĴ èģĶç½ĳ",
      "ä¸ª ç³ĸæŀľ",
      "æĺĵ äºİ",
      "åıª æľī",
      "äºº çī©",
      "æĻ ´",
      "æľªæĿ¥ çļĦ",
      "éĿ¢ ä¸´",
      "å¯ Ł",
      "æĦŁ è°¢",
      "åĬĽ åĴĮ",
      "ç»Ħ æĪĲ",
      "è·ĳ æŃ¥",
      "æĸĩç«ł ä¸ŃçļĦ",
      "çĥ Ł",
      "çĽ¸åħ³ çļĦ",
      "åĵª éĩĮ",
      "ä¸Ń æĸĩ",
      "å¡ Ķ",
      "åºĶ å¯¹",
      "åıĤ ä¸İ",
      "ç¨ ³",
      "è¶³ çĲĥ",
      "ä¸Ģ æł·",
      "çĽ Ľ",
      "èĩª æĪĳ",
      "åŃ£ èĬĤ",
      "è¡£ æľį",
      "åº Ł",
      "å° ģ",
      "å® Ļ",
      "åĽ½ éĻħ",
      "æĩ Ĥ",
      "ä¾ĭ åŃĲ",
      "çļĦæ ®",
      "æĹ §",
      "ç±» åĪ«",
      "3 0",
      "æ° ¸",
      "çļĦ æĹ¶åĢĻ",
      "æł¹æį® æıĲä¾Ľ",
      "è® ¢",
      "è½¬ æį¢",
      "æĬ ĺ",
      "åĪĨ äº«",
      "éĤ£ éĩĮ",
      "å® Ī",
      "ï¼ļ ãĢĬ",
      "ç¥ Ŀ",
      "æİ¨èįĲ ä¸Ģ",
      "çļĦ æĸ¹å¼ı",
      "æµ ĵ",
      "è§Ĵ èī²",
      "å½¢ æĪĲ",
      "çı ł",
      "å®ĩ å®Ļ",
      "ä¿Ŀ åģ¥",
      "ä¸º æĪĳ",
      "éģ Ĺ",
      "ä¸ª æĢ§",
      "åı¯ä»¥ åľ¨",
      "å ĺ",
      "ç§ĭ å¤©",
      "å»ºè®® æĤ¨",
      "è¿Ľ æŃ¥",
      "å¤ª ç©º",
      "ä¸ Ŀ",
      "å° Ĭ",
      "åľ° æĸ¹",
      "ç¥ŀ ç»ı",
      "æī ¿",
      "æ´ ¾",
      "ç¯ ®",
      "éĩįåĨĻ ä»¥ä¸ĭåı¥åŃĲ",
      "å®ŀ éĻħ",
      "çİ Ľ",
      "äºĭ å®ŀ",
      "å¸ Ŀ",
      "å¼ķ èµ·",
      "æĪĳ åľ¨",
      "æķĪ æŀľ",
      "åį³ åı¯",
      "åħ³éĶ® ä¿¡æģ¯",
      "æ»¡ è¶³",
      "æ©Ļ åŃĲ",
      "èĥĮ æĻ¯",
      "è® ¿",
      "çĽ ĺ",
      "åĪĨ éĴŁ",
      "æĢ» æĺ¯",
      "åĶ ±",
      "çĹ Ľ",
      "èģĬ å¤©",
      "æĺ ł",
      "èĳĹåĲį çļĦ",
      "æĶ¿ çŃĸ",
      "çļĦæµ ·",
      "éĴĪ å¯¹",
      "è Ĩ",
      "çİ° å®ŀ",
      "æķ ĳ",
      "å¤© ç©º",
      "å¥¹ çļĦ",
      "éĩį çĤ¹",
      "å·´ é»İ",
      "çļĦæ® µ",
      "æĬķ èµĦ",
      "åĮ»çĸĹ é¢ĨåŁŁ",
      "åĩı è½»",
      "å¹´ çļĦ",
      "éħ ±",
      "è´£ ä»»",
      "æĪĳ æľĢè¿ĳ",
      "æ³ °",
      "å°Ĩ ä»¥ä¸ĭåı¥åŃĲ",
      "å® ľ",
      "åıĸ å¾Ĺ",
      "å®¶ å±ħ",
      "åĨ ¥",
      "åĪ º",
      "èĹ ı",
      "æĸĩæľ¬ è¿Ľè¡Į",
      "åĿ ¦",
      "æıĲä¾Ľ ä¸ĢäºĽ",
      "é¡ ¾",
      "è¿Ļ ä¸Ģ",
      "å¢ŀ éķ¿",
      "è·Ŀ ç¦»",
      "åľ¨ çº¿",
      "åħ·ä½ĵ çļĦ",
      "è®© æĪĳä»¬",
      "éª ĳ",
      "éĿ ł",
      "åĽ¢ éĺŁ",
      "ä¸Ģ åĲį",
      "åĳ³ éģĵ",
      "èį¯ çī©",
      "è¿Ľ ä¸ĢæŃ¥",
      "åĬĽ éĩı",
      "éº ¦",
      "ä¹ ¡",
      "å¹¸ ç¦ı",
      "ç¾İ å¥½",
      "æķ´ ä¸ª",
      "çļĦæ®µ èĲ½",
      "æĥħ èĬĤ",
      "çīĽ å¥¶",
      "æ± ł",
      "çĨ Ł",
      "çļĦ é£İæł¼",
      "æİ¨ çĲĨ",
      "çĤ İ",
      "æĬ½åıĸ åĩº",
      "å¹³ åĿĩ",
      "èĭ ı",
      "é ĸ",
      "èĦ Ĥ",
      "çĬ¶ åĨµ",
      "ä¸ľ è¥¿",
      "çī¹ å®ļ",
      "æĺŁ æľŁ",
      "æĸĩæľ¬ ä¸ŃçļĦ",
      "æģ Ĳ",
      "ä»¥ä¸ĭ æĺ¯ä¸Ģ",
      "æľī åĵªäºĽ",
      "åħĥ ç´ł",
      "å¿ Ļ",
      "ä¹¦ ç±į",
      "åĩº æĿ¥",
      "æģ ¶",
      "ä¹ ³",
      "æĦı å¤§åĪ©",
      "ç©º éĹ´",
      "åıĳ å¸ĥ",
      "æľī ä¸Ģ",
      "æ ¾",
      "æĪĳ æ²¡æľī",
      "æĢ» ç»Ł",
      "æŀ ¶",
      "ä¸Ĭ åįĩ",
      "æĤ¨ éľĢè¦ģ",
      "éħ ¸",
      "åĬ ³",
      "èĥ½ åĲ¦",
      "ç¼ ©",
      "åĲĪ çĲĨ",
      "æİ Į",
      "æĮ ¥",
      "å®ļ ä¹ī",
      "çº ¸",
      "æĮĩ åĩº",
      "çļĦ æĹ¶éĹ´",
      "åĽłä¸º å®ĥ",
      "è¶³ å¤Ł",
      "1 5",
      "é«ĺ æķĪ",
      "èĲ¥ éĶĢ",
      "è¾ Ĩ",
      "ç¬¦ åĲĪ",
      "çļĦ æĸ°",
      "è®º æĸĩ",
      "æĸ°éĹ» æĬ¥éģĵ",
      "çĪ ¶",
      "åĽ° éļ¾",
      "ï¼Ł âĢĿ",
      "æļ Ĺ",
      "åĢ Ĵ",
      "æµģ è¡Į",
      "åģ¥åº· é¥®é£Ł",
      "çĥ §",
      "è¯´ æĺİ",
      "éĽ ¶",
      "å§ Ĩ",
      "çī Ļ",
      "è ©",
      "ç»Ĩ èĬĤ",
      "ä¹ İ",
      "éļĲ ç§ģ",
      "æł ¸",
      "ç¬¦ åı·",
      "æ¬ £",
      "çļĦ å¤§",
      "æĵ į",
      "æľī çĿĢ",
      "åģ¥åº· çļĦ",
      "æŁ¥ è¯¢",
      "ä¹ĭ åīį",
      "éŃ Ķ",
      "çŃ ¾",
      "åĮ»çĸĹ ä¿Ŀåģ¥",
      "èĩª è¡Į",
      "äº ¿",
      "ç® ±",
      "çĬ¶ æĢģ",
      "åĲ ¯",
      "ä»İè¿Ļç¯ĩæĸĩç«łä¸ŃæıĲåıĸ åĩº",
      "çļĦ è¯Ńè¨Ģ",
      "çĬ ¯",
      "æĢ Ģ",
      "çļĦæĢ »",
      "åīį å¾Ģ",
      "åĵ ¥",
      "å¹³ åı°",
      "åĿļ æĮģ",
      "ä¼ °",
      "å®ĥä»¬ çļĦ",
      "æ½ ľ",
      "å¹¿ åĳĬ",
      "åĨ ²",
      "æ¼Ķ åĳĺ",
      "æµ· æ»©",
      "æĸ¹ ä¾¿",
      "åķĨ ä¸ļ",
      "åŁ ¹",
      "çº ¯",
      "æİ ī",
      "éģ į",
      "Ġ -",
      "å¤ļ æł·",
      "éķ¿ åº¦",
      "åºĶçĶ¨ äºİ",
      "çº¢ èī²",
      "ä¿ĿæĬ¤ çİ¯å¢ĥ",
      "èĤ ¤",
      "å® ģ",
      "åĮĸ çļĦ",
      "Ģ æľī",
      "åºĶçĶ¨ ç¨ĭåºı",
      "æŃ ¦",
      "è¿Ļ æľ¬ä¹¦",
      "å¹ ħ",
      "å¥ ĭ",
      "ç±» ä¼¼",
      "æµĭ è¯ķ",
      "åı¯æĮģç»Ń åıĳå±ķ",
      "æĬ Ĺ",
      "å¦ Ī",
      "åĳĺ å·¥",
      "æĺ¯ä¸Ģ éĥ¨",
      "æĶ¹ è¿Ľ",
      "è ²",
      "æī¾ åĩº",
      "å¸ ģ",
      "éĿŀå¸¸ å¥½",
      "æŃ£ç¡® çļĦ",
      "äº ¡",
      "çĽ® çļĦåľ°",
      "ç¥ŀ ç§ĺ",
      "äººç±» çļĦ",
      "åĬ¨ ä½ľ",
      "åĨ¥ æĥ³",
      "äºº çĶŁ",
      "çª Ĺ",
      "æĤ£ èĢħ",
      "çĤ º",
      "æ¼ Ĥ",
      "ä»ĸ åľ¨",
      "è¾ £",
      "åĪ¶ éĢł",
      "åĶ Ĳ",
      "çļĦæĥħ åĨµ",
      "çĸ« æĥħ",
      "çºł æŃ£",
      "è½» æĿ¾",
      "å¾ Ħ",
      "æĿ Ģ",
      "æıĲ åįĩ",
      "æĢĿ æĥ³",
      "å¼Ģ æĶ¾",
      "æ¨¡ å¼ı",
      "é«ĺ åħ´",
      "åķ Ĭ",
      "æľº æŀĦ",
      "çĬ ¬",
      "è¿ĩç¨ĭ ä¸Ń",
      "åħ¬ åħ±",
      "æĸ Ĺ",
      "è¿Ļ é¦ĸ",
      "åĬ¨ è¯į",
      "åĢ ĳ",
      "æı ¡",
      "è°ĥ æķ´",
      "çļĦ ä¼ĺ",
      "å Ĺ",
      "è®²è¿° äºĨ",
      "åĪĨ åĪ«",
      "å®¶ äºº",
      "æ¶ ¦",
      "ï¼Į âĢľ",
      "åĲ Ľ",
      "æ·± åħ¥",
      "æĿ Ł",
      "æĳ ĺ",
      "æł¹æį®ç»Ļå®ļçļĦ æĸĩæľ¬",
      "å ´",
      "20 2",
      "è¿Ļ æ¬¾",
      "ç µ",
      "å¯ ¿",
      "æ¹ ¿",
      "é£ ĺ",
      "å¼ ĥ",
      "ä¸ºæĤ¨ æıĲä¾Ľ",
      "æĤ ¦",
      "ç Ĵ",
      "éĻĲ åĪ¶",
      "âĢ ¦",
      "çļĦæī Ģæľī",
      "æĦŁ åıĹ",
      "èĭ ¦",
      "å¹¶ åľ¨",
      "åŃĹ æ¯į",
      "éĶ ħ",
      "ç®Ģ è¦ģ",
      "éķ ĩ",
      "æĢ ¥",
      "èķ ī",
      "æ¡ Į",
      "æĪĳ è®¤ä¸º",
      "çĹħ æ¯Ĵ",
      "åįģ åĪĨ",
      "å° į",
      "è®¨è®º äºĨ",
      "å· Ŀ",
      "« èĲ¨",
      "è¯» èĢħ",
      "è´ ¡",
      "çļĦæŃ Į",
      "å°Ĩ åľ¨",
      "å¿ħ è¦ģ",
      "æ° ı",
      "åº Ĩ",
      "ä¸ĭ åįĪ",
      "çĶ °",
      "çĩ ĥ",
      "ä¸Ģ åħ±æľī",
      "èĽĭ ç³ķ",
      "è° ±",
      "çĶŁæĢģ ç³»ç»Ł",
      "ä¸Ģæ®µ æĸĩæľ¬",
      "æ¨¡ æĭŁ",
      "çĽ´ æİ¥",
      "æ± ¤",
      "çļĦæı ıè¿°",
      "çĪ± å¥½",
      "åŃ¤ çĭ¬",
      "è°ĥ æŁ¥",
      "ä¸Ń æľĢ",
      "é¥ ¼",
      "ç©¿ çĿĢ",
      "æİ¨ åĬ¨",
      "çļĦæĻ ¯",
      "åı¯ çĪ±",
      "ä½ Ľ",
      "G P",
      "çļĦæ´ »åĬ¨",
      "å¹¶ æıĲä¾Ľ",
      "çı į",
      "æī§ è¡Į",
      "æĶ »",
      "ç²¾ ç¥ŀ",
      "æ£ ī",
      "ç®Ģ çº¦",
      "çĦ¶ èĢĮ",
      "åľ £",
      "éĢĤ åºĶ",
      "é¦Ļ èķī",
      "æĺ¾ ç¤º",
      "ç½ ª",
      "æĥħ ç»ª",
      "è¡¨è¾¾ äºĨ",
      "éĿ¢ æĸĻ",
      "å° ¾",
      "çĶŁ æĹ¥",
      "èĭ± åĽ½",
      "èī¯ å¥½çļĦ",
      "åĴ ¨",
      "è¿Ļç¯ĩæĸĩç«ł ä¸Ń",
      "æ¸© æļĸ",
      "èĤ ¥",
      "éļ ľ",
      "ç¿ °",
      "æľĢåĸľæ¬¢ çļĦ",
      "è¾¾ åĪ°",
      "æ°Ķ ä½ĵ",
      "å·¥ ç¨ĭ",
      "èĩªåĬ¨ é©¾é©¶",
      "çĶ ³",
      "ä¸Ģ èĪ¬",
      "åĲ ¹",
      "ä¸Ģ å®¶",
      "çļĦæĻ º",
      "åĲĪ å¹¶",
      "è´ ¥",
      "åĸ »",
      "éĿ¢ åĮħ",
      "ä»£ çłģ",
      "å·¦ åı³",
      "é¾ Ħ",
      "ä»¥ ä¸Ĭ",
      "éĹ Ń",
      "å¤ªéĺ³ ç³»",
      "¡ èĲ",
      "çŃĸ çķ¥",
      "çī© çĲĨ",
      "ç¾İä¸½ çļĦ",
      "åº ĵ",
      "å½¢å®¹ è¯į",
      "æ· ·",
      "çļĦæ ³",
      "éľ ĩ",
      "èĢ ³",
      "è´ Ŀ",
      "çļĦæ ¦Ĥ",
      "çļĦæ ĭ",
      "æĸĩæľ¬ éĶĻè¯¯",
      "åĩº èī²",
      "å° ¤",
      "åĴ¨ è¯¢",
      "æİ¨ å¹¿",
      "æĺ¯ çļĦ",
      "é ½",
      "æī ©",
      "çļĦ çŃĶæ¡Ī",
      "ç¾İ å¥½çļĦ",
      "æ³ķ å¾ĭ",
      "åħ µ",
      "å°Ĩ ä¸ĭéĿ¢",
      "åı¤ ä»£",
      "æŃĮ æĽ²",
      "åŃ¦ä¹ł åĴĮ",
      "æı ı",
      "ç» ĺ",
      "è¡ «",
      "åĨį çĶŁ",
      "å» ¶",
      "ª æĺİ",
      "åł Ĥ",
      "æĿ¥ èĩª",
      "åı¤è¯Ĺ ç»ŃåĨĻ",
      "ä¾ Ĩ",
      "èĵĿ èī²",
      "åı¯èĥ½ æĺ¯",
      "GP T",
      "ãĢĭ ãĢĤ",
      "å¼ł ä¸ī",
      "æĺİ ç¡®",
      "æľ µ",
      "åĤ ¨",
      "ç¾İ åħĥ",
      "å¼ ¹",
      "åĸľ å¥½",
      "æĪĲ éķ¿",
      "ç ĺ",
      "è®° å½ķ",
      "ä¸ĢäºĽ åħ³äºİ",
      "èĪ ¹",
      "éĻĦ è¿ĳ",
      "èĩªè¡Į è½¦",
      "æľĢ ä½³",
      "ä¸»è¦ģ è§ĤçĤ¹",
      "± ä¹Ĳ",
      "éĴ ¢",
      "æ´ Ľ",
      "éº »",
      "å¦ Ļ",
      "åį ·",
      "æīĢ åľ¨",
      "çĶŁæĪĲ æĳĺè¦ģ",
      "åĽ º",
      "èĽĭ çĻ½",
      "æĪĳä»¬ åºĶè¯¥",
      "å®Į åħ¨",
      "ä¸ĸ çºª",
      "æ± ģ",
      "è¶ħ å¸Ĥ",
      "çĽ ¾",
      "ä¼ĺ åĮĸ",
      "è¯ŃéŁ³ è¯ĨåĪ«",
      "æľĢ å¥½çļĦ",
      "è¿ ¹",
      "è¿ Ķ",
      "èĭ ¥",
      "æĿ °",
      "çĶ¨ æĿ¥",
      "èİ «",
      "ä¸Ĭ è¿°",
      "éĩı åŃĲ",
      "èĭ Ĺ",
      "åĵ ¦",
      "èĤ ¯",
      "æĪĳæĥ³ çŁ¥éģĵ",
      "æĺĵ æĩĤ",
      "æľĢ æĸ°",
      "è½ ½",
      "å¥ ı",
      "æĺĵäºİ çĲĨè§£",
      "è´¡ çĮ®",
      "æİ¢è®¨ äºĨ",
      "åĪĽå»º ä¸Ģä¸ª",
      "æĪĲ ä¸Ģä¸ª",
      "çļĦ äºĭæĥħ",
      "å¿ĥ æĥħ",
      "æıĲä¾Ľ äºĨ",
      "æĸĩ è¨Ģ",
      "å¾Ī æĬ±æŃī",
      "é¼ĵ åĬ±",
      "è§£åĨ³ æĸ¹æ¡Ī",
      "çļĦ éŁ³ä¹Ĳ",
      "åįļ çī©",
      "æĸĩè¨Ģ æĸĩ",
      "åĽŀ æĶ¶",
      "å¤§ æ°Ķ",
      "æĭ į",
      "é¢Ħ éĺ²",
      "æ¶Ī è´¹",
      "ä¹° äºĨ",
      "çļĦ ä¸Ģä¸ª",
      "è¢ ĸ",
      "ä¸ª åŃĹ",
      "æ³ķ åĽ½",
      "æľĢ é«ĺ",
      "å®ĥ æĺ¯",
      "çĹĩ çĬ¶",
      "çļĦ å·¥ä½ľ",
      "ä» Ķ",
      "èµ ŀ",
      "å «",
      "æİ¨ åĩº",
      "æ£® æŀĹ",
      "å·¥ ä¸ļ",
      "å§ Ķ",
      "æľī æīĢ",
      "å¤§ å®¶",
      "æĹ© é¤Ĳ",
      "ç» ©",
      "ä»Ĭ å¹´",
      "éļı æĹ¶",
      "çİ° è±¡",
      "äºº æ°ĳ",
      "å¥½ çľĭ",
      "å°ı åŃ¦",
      "åģĩ è®¾",
      "çŁ Ľ",
      "å¸¦æĿ¥ äºĨ",
      "èº«ä½ĵ åģ¥åº·",
      "çļĦ åİĨåı²",
      "å® Ĺ",
      "ä¸Ĭ éĿ¢",
      "çł´ åĿı",
      "æ¬ ²",
      "å®ī æİĴ",
      "å¯» æ±Ĥ",
      "çº¦ ç¿°",
      "æĬĢæľ¯ çļĦ",
      "å© ļ",
      "è¡ ¥",
      "æ ¦",
      "ä¸Ĭ ä¸ĭæĸĩ",
      "èĥ ģ",
      "ä¸Ģ æĿ¡",
      "éĽ ·",
      "é¸¡ èĽĭ",
      "èģ ªæĺİ",
      "è¯· çĶ¨",
      "æĪĲ æľ¬",
      "åĨ¬ åŃ£",
      "èİ ĵ",
      "åī ¯",
      "éĻĪ è¿°",
      "çĤ Ĵ",
      "çļĦæĢ Ŀ",
      "ä¸ĭ éĽ¨",
      "çħ ®",
      "çļĦ éĢīæĭ©",
      "éª ¨",
      "çľŁ çļĦ",
      "å¹¶ ä¸į",
      "çļ ĩ",
      "ç¯® çĲĥ",
      "èĩ³ å°ĳ",
      "åĳ Ī",
      "çŁĽ çĽ¾",
      "èĦ ±",
      "éĢĲ æ¸Ĳ",
      "æ·± åĪ»",
      "åĲĦ ä¸ª",
      "ä¸į è¶ħè¿ĩ",
      "éª ¤",
      "çĪ Ĩ",
      "ç¤¼ çī©",
      "çĶŁ åŃĺ",
      "å®ĥ åı¯ä»¥",
      "çĽ Ĳ",
      "è¯· å¯¹",
      "åħ¬åĽŃ éĩĮ",
      "çĵ ¶",
      "çĸ ²",
      "è½ ®",
      "åıĳ æĮ¥",
      "ãĢĭ ï¼Į",
      "éĻ Ĩ",
      "ç ¶",
      "éĺ ´",
      "åĲİ çļĦ",
      "è¿ ª",
      "å¨ģ èĥģ",
      "æĪ¿ éĹ´",
      "æĹ¶ ä»£",
      "ä¼ĺ ç§Ģ",
      "çİ¯å¢ĥ æ±¡æŁĵ",
      "çĤ¹ ç¬¦åı·",
      "åĢ Ł",
      "æĸ° é²ľ",
      "æĥ ł",
      "å®Į æķ´",
      "è¿½ æ±Ĥ",
      "åĪĨ ç»Ļ",
      "çļĦ åŁİå¸Ĥ",
      "çļĦä¸» æĹ¨",
      "çĽ¸ ä¿¡",
      "çĶ· å£«",
      "é¥® æĸĻ",
      "ä½ĵ èĤ²",
      "æĺ¯ ä¸ŃåĽ½",
      "è¿Ľè¡Į æĳĺè¦ģ",
      "ç»ĵ åĲĪ",
      "å±ķ ç¤º",
      "éĥ ģ",
      "èĬĤ çº¦",
      "éĵ¶ è¡Į",
      "æł¹æį® è¾ĵåħ¥",
      "ç»ı è¿ĩ",
      "åĩ Ģ",
      "åĽŀ å®¶",
      "æį Ł",
      "æµ ®",
      "ç´ ¯",
      "ä½ł éľĢè¦ģ",
      "ä¸Ń ç«ĭ",
      "ç» Ĵ",
      "éĥ½ ä¼ļ",
      "æ¦Ĥ å¿µ",
      "ä¼ Ĭ",
      "ç®Ģåįķ çļĦ",
      "æ¤ Ĵ",
      "è¯ º",
      "éĢ Ģ",
      "è¿ĺ åī©ä¸ĭ",
      "èĩªåĬ¨ åĮĸ",
      "çĽ¸ åºĶ",
      "ç«ŀ äºī",
      "èķ ´",
      "çļĦæ¯ Ķ",
      "ç»Ļ ä½ł",
      "çļĦæĥ ³",
      "æĹ ¢",
      "åįļçī© é¦Ĩ",
      "æĻ ¨",
      "è¯¾ ç¨ĭ",
      "åŃ ¸",
      "èĤ Į",
      "ä¼ĺ è´¨",
      "éĢ Ļ",
      "çĻ Į",
      "å¤ĸ å¥Ĺ",
      "æ½® æµģ",
      "å®ļ æľŁ",
      "ç§ »",
      "æŁ¥ æī¾",
      "åıį åºĶ",
      "æľĢ å¥½",
      "å¤©æ°Ķ é¢ĦæĬ¥",
      "ç§į ç±»",
      "åĴĮ ä¸Ģä¸ª",
      "åĪ ĺ",
      "çļĦ å°ıè¯´",
      "åĲ ī",
      "å°Ĩ å®ĥä»¬",
      "å¾ ª",
      "æħ §",
      "è· µ",
      "åĪĨç±» ä¸º",
      "å¡ «",
      "èľ ľ",
      "å¸® æĪĳæĥ³",
      "çļĦæī ĭ",
      "èº« å¿ĥ",
      "çĶ ļ",
      "ç»Ļå®ļçļĦ æĸĩæľ¬",
      "èĻļ æĭŁ",
      "å°Ĩ ä»¥ä¸ĭæĸĩæľ¬",
      "ä¸Ĭ æĸĩ",
      "è§Ĩ é¢ĳ",
      "ä¸Ģä¸ª äºº",
      "çľŁ æŃ£",
      "éĤ£ ä¸ª",
      "æ¶Ī æŀģ",
      "å® ¾",
      "è¾ ħ",
      "é£İ æĻ¯",
      "æķ ¦",
      "å¥³ åŃ©",
      "çĭ¬çī¹ çļĦ",
      "æģ ©",
      "é¼ ł",
      "çĶŁæ´» ä¸Ń",
      "è¿Ľ åħ¥",
      "æŁĲ äºĽ",
      "çĵ ľ",
      "åĪ ł",
      "ä½Ĩ ä»ĸ",
      "ç» ķ",
      "æľ ĥ",
      "ä¹ ı",
      "æķ ¢",
      "è ³",
      "ä¹Ł ä¼ļ",
      "ç¨ĭ åº¦",
      "åı¯ åĨįçĶŁ",
      "çĪ ½",
      "çľĭ çľĭ",
      "çĭ¬ ç«ĭ",
      "çļĦ åĲ«ä¹ī",
      "åīį æĻ¯",
      "è¯ ļ",
      "åĪ° è¾¾",
      "æĵį ä½ľ",
      "åį ĸ",
      "å£ ®",
      "ç»ŃåĨĻ åı¤è¯Ĺ",
      "éģĵ å¾·",
      "æ¡ ¥",
      "ä¸¾ è¡Į",
      "é» ĺ",
      "éķ ľ",
      "å¦Ĥæŀľä½ł åĸľæ¬¢",
      "åĦ¿ ç«¥",
      "ä¹ ±",
      "æľī è®¸å¤ļ",
      "æĹł è®º",
      "ä¸į åŃĺåľ¨",
      "åı¥åŃĲ ä¸Ń",
      "æķ°åŃ¦ é¢ĺ",
      "æĺ¯ä¸Ģ ä½į",
      "çģ¾ å®³",
      "å¹´ æĿ¥",
      "è ļ",
      "å¹ ķ",
      "è§ Ī",
      "æĤ ²",
      "åĵ º",
      "çĭĹ çĭĹ",
      "çĶŁæ´» æĸ¹å¼ı",
      "åĨĴ éĻ©",
      "æ· ĭ",
      "åľ¨ ä¸Ģèµ·",
      "æ³ ¡",
      "æĺ¯ çĶ±",
      "çļĦ è¯ĹæŃĮ",
      "è§Ħ åĪĴ",
      "æĪĳ æĺ¨å¤©",
      "æī ĺ",
      "ä¸» ä¹ī",
      "éĩį å¤į",
      "æ² Ł",
      "æ²Ļ æ»©",
      "çİ°ä»£ æĸĩ",
      "çº ·",
      "æĹ ĭ",
      "åĢ ¾",
      "æ· ¡",
      "åĵģ ç§į",
      "ç ŀ",
      "åĨĻ ä¸Ģç¯ĩ",
      "å£° éŁ³",
      "æĦī å¿«",
      "éĢ »",
      "æİ¥ åıĹ",
      "èĤ ª",
      "ç¿»è¯ĳæĪĲ æĸĩè¨Ģæĸĩ",
      "æĭ¼åĨĻ éĶĻè¯¯",
      "æľŁ éĹ´",
      "âĢĿ ãĢĤ<|",
      "èĦĤ èĤª",
      "å¡ ŀ",
      "æĸ ¼",
      "ä½Ĩ æĪĳ",
      "åĮº åĿĹ",
      "è§Ħ åĪĻ",
      "æĸĩ ä¸Ń",
      "æĺŁ çĲĥ",
      "åİŁ åı¥",
      "ä¿Ŀ è¯ģ",
      "èµ ¢",
      "è° ĵ",
      "èĸ Ħ",
      "æ¸ ¯",
      "æĳĦ åħ¥",
      "æŁĲ ä¸ª",
      "è¿Ļå®¶ é¤Ĳåİħ",
      "ç¿»è¯ĳæĪĲ çİ°ä»£æĸĩ",
      "Ġ âĢľ",
      "çľĭ èµ·æĿ¥",
      "æ¸ħ æ´ģ",
      "å¯¹ çİ¯å¢ĥ",
      "å®ŀ è·µ",
      "æĤ ¬",
      "çļĦæ ±",
      "ä¸Ģ æĿ¯",
      "æ¨¡ ä»¿",
      "ä¹ĭ åĲİ",
      "æĺ¥ å¤©",
      "çĶµ è¯Ŀ",
      "å± ĭ",
      "å² ¸",
      "è ¹",
      "ä¸Ģ æ¬¾",
      "æ¼Ĥ äº®",
      "æľī æ²¡æľī",
      "å¦Ĥ ä¸ĭ",
      "ç¾ Ĭ",
      "åı ¹",
      "åľ¨ ä¸Ģä¸ª",
      "å¼ºè°ĥ äºĨ",
      "âĢĶ âĢĶ",
      "åł ¡",
      "é¤Ĳ é¦Ĩ",
      "åŀĥåľ¾ åĪĨç±»",
      "çļĦ é£İéĻ©",
      "æ°§ åĮĸ",
      "ç¥ŀç»ı ç½ĳç»ľ",
      "è¿ŀ æİ¥",
      "å§ ĵ",
      "æĻºèĥ½ å®¶å±ħ",
      "èį £",
      "ä¹Ł å¾Ī",
      "è§ ¦",
      "åĴĮ åħ¶ä»ĸ",
      "èħ ¿",
      "åıį ä¹īè¯į",
      "èĭ± æĸĩ",
      "ç»ĻæĪĳ ä¸Ģä¸ª",
      "æŀ Ŀ",
      "ç¡ ¬",
      "æĬ «èĲ¨",
      "ä¸Ģ å¤©",
      "éĩĮ æľī",
      "åº¦ åģĩ",
      "è§£éĩĬ ä¸Ģä¸ĭ",
      "æĤ ł",
      "èĽĭçĻ½ è´¨",
      "å±± å³°",
      "ç´ «",
      "å°ı çĭĹ",
      "ç¬ĳ è¯Ŀ",
      "æĹ¨ åľ¨",
      "å¨ ±ä¹Ĳ",
      "çĸ« èĭĹ",
      "å¹´ é¾Ħ",
      "æī ¹",
      "Ġ å¥½çļĦ",
      "çļĦæĮ ĳæĪĺ",
      "Ġ =",
      "çľĭ åĪ°äºĨ",
      "çĽ¸ å¯¹",
      "è¡¨ éĿ¢",
      "20 0",
      "èĢ Ĺ",
      "è¯Ŀ é¢ĺ",
      "æŁĶ è½¯",
      "æĹ¶éĹ´ åĴĮ",
      "åĵº ä¹³",
      "éĢ» è¾ĳ",
      "èĥ½ éĩı",
      "ï¼ļ \"",
      "åĽŀçŃĶ éĹ®é¢ĺ",
      "åıª æĺ¯",
      "éĹ ª",
      "æ¯ıä¸ªäºº éĥ½",
      "åİ ¿",
      "ä¸ļ åĬ¡",
      "ä¸Ģ åı¥",
      "æµª æ¼«",
      "éĢĤ éĩı",
      "é¡ ¶",
      "ç¨³ å®ļ",
      "æĪ ´",
      "èĢĥ è¯ķ",
      "çļĦ èĥ½åĬĽ",
      "é¡º åºı",
      "åı¯ä»¥ ä½¿çĶ¨",
      "éĩĮ çļĦ",
      "éŁ µ",
      "çģµ æĦŁ",
      "ä¸Ģä¸ĭ è¿Ļç¯ĩæĸĩç«ł",
      "æ¢ ħ",
      "åĮºåĿĹ éĵ¾",
      "å°ıæĺİ æīĭ",
      "æľĢ æĸ°çļĦ",
      "ä¹ Ķ",
      "æııè¿° äºĨ",
      "è¿ ħ",
      "ä»¥ä¸ĭ æ®µèĲ½",
      "å»º è®¾",
      "éĢĤå½ĵ çļĦ",
      "åĲĥ äºĨ",
      "å¤ļ çļĦ",
      "o n",
      "æİĮ æı¡",
      "ä¼ĳ æģ¯",
      "äºĭ çī©",
      "å¹¶ æ²¡æľī",
      "çĶµåŃĲ éĤ®ä»¶",
      "çķ ª",
      "å¿ §",
      "ãĢĤ\" <|",
      "å®¤ æ°Ķä½ĵ",
      "éľ ľ",
      "åĵģ è´¨",
      "å®£ å¸ĥ",
      "çļĦä¸»è¦ģ åĨħå®¹",
      "çļĦ åİŁåĽł",
      "å°½ åĬĽ",
      "Ġ åľ¨",
      "è¯Ħ ä¼°",
      "æĶ¹ æŃ£",
      "å°¤ åħ¶",
      "åº¦ åĴĮ",
      "éĽ Ħ",
      "åĮĸ åŃ¦",
      "çļĦæ ¼",
      "ä¸º ä½ł",
      "åĳ¨ åĽ´",
      "çļĦå¤©æ°Ķ é¢ĦæĬ¥",
      "æ ª",
      "æ¯Ķ åĸ»",
      "éĿ¢ å¯¹",
      "åĴĮ æĸĩåĮĸ",
      "åĬŀ åħ¬",
      "æĹ¶ æľŁ",
      "æİ¥ ä¸ĭæĿ¥",
      "äºĨ è®¸å¤ļ",
      "æĺ¯ä»Ģä¹Ī æĦıæĢĿ",
      "é¢Ħ ç®Ĺ",
      "è¿Ļ é¡¹",
      "éľĢè¦ģ æ³¨æĦı",
      "ä½ľä¸º ä¸Ģä¸ª",
      "èĬ± åĽŃ",
      "çļĦ è®¾è®¡",
      "ãĢĤ '",
      "æĦŁ åħ´è¶£",
      "èī² å½©",
      "çĽ¸ äºĴ",
      "å¹ ½",
      "è¯¢ éĹ®",
      "æ¬§ æ´²",
      "è´ ´",
      "è¯Ń åı¥",
      "å®ŀ éªĮ",
      "æĪĳ å°Ĩ",
      "æĶ¹ ä¸º",
      "åĪł éĻ¤",
      "åĶ ¯",
      "åĲ¬ èµ·æĿ¥",
      "å®£ ä¼ł",
      "äºĶ ä¸ª",
      "ä½ł è®¤ä¸º",
      "çĤ ¸",
      "è¯Ń æ°Ķ",
      "èķ´ åĲ«",
      "æł¹æį® ä»¥ä¸ĭæĸĩæľ¬",
      "æĭ Ľ",
      "æŁ¥ çľĭ",
      "åı¯åĨįçĶŁ èĥ½æºĲ",
      "ç¾İ çļĦ",
      "ä½¿åħ¶æĽ´åĬł ç®Ģæ´ģæĺİäºĨ",
      "ä¸» äºº",
      "çĶ¨ çļĦ",
      "ç¬¬ ä¸ī",
      "AI è¯Ńè¨Ģæ¨¡åŀĭ",
      "èĦ ı",
      "èĻ «",
      "çĶŁæĪĲ ä¸Ģé¦ĸ",
      "è¡¨ æ¼Ķ",
      "åĴ ª",
      "æ¡ £",
      "è§Ĥ ä¼Ĺ",
      "æĢĿ ç»´",
      "ä¸įåŃĺåľ¨ å®ŀä½ĵ",
      "åĬł ä¸Ĭ",
      "åŁ ĥ",
      "éĶĻ åĪ«",
      "æ³¨ éĩį",
      "å¤§ èĩªçĦ¶",
      "æĸĩæľ¬ çºłéĶĻ",
      "éĶĻåĪ« åŃĹ",
      "æķ°æį® éĽĨ",
      "çļĦæ¸ ¸",
      "éļ Ķ",
      "çĥŃ éĹ¨",
      "çĬ ¹",
      "å¯¹ æĸĩæľ¬éĶĻè¯¯",
      "å¯¹æĸĩæľ¬éĶĻè¯¯ è¿Ľè¡Į",
      "æĸĩç«łä¸Ń æıĲåĪ°",
      "ä»¥ä¸ĭæĺ¯ä¸Ģ éģĵ",
      "çĪ ¬",
      "ä½ł è§īå¾Ĺ",
      "è½¬æį¢ ä¸º",
      "çī¹ èī²",
      "äº¤ æĺĵ",
      "éģ Ń",
      "ç¾İ æĻ¯",
      "è§Ħ å¾ĭ",
      "çĽ Ł",
      "è¿Ľè¡Į åĪĨç±»",
      "æĻ Ĵ",
      "ç»Ħ åĲĪ",
      "è¯ ¸",
      "åĬ© æīĭ",
      "å®ŀä½ĵ è¯ĨåĪ«",
      "åľ¨å®¶ éĩĮ",
      "é¢Ĩ å¯¼",
      "çĥ ¹",
      "æł· çļĦ",
      "å°ıåŃ¦ æķ°åŃ¦é¢ĺ",
      "çļĦæİ ªæĸ½",
      "èĢģ å¸Ī",
      "åī§ æĥħ",
      "çī© ä½ĵ",
      "æį ·",
      "åħ ļ",
      "ä»¥ä¸ĭæĺ¯ä¸Ģéģĵ å°ıåŃ¦æķ°åŃ¦é¢ĺ",
      "å¾Ĺ åĪ°äºĨ",
      "æ® Ĭ",
      "åĩº äºĨ",
      "è¿ Ł",
      "åİŁ æĸĩ",
      "çĶ ²",
      "å½ ¼",
      "åºĶè¯¥ æĺ¯",
      "åĨĻ çļĦ",
      "å®ŀ æĹ¶",
      "æİĴ åºı",
      "èĻ İ",
      "åĸľæ¬¢ åĲĥ",
      "å¿ ł",
      "é«ĺ åº¦",
      "ä¸Ģ é¡¹",
      "æłĩ åĩĨ",
      "å® ¡",
      "èĮ Ħ",
      "æĪĺ äºī",
      "æĽ¿æį¢ ä¸º",
      "ä¸ŃçļĦ åºĶçĶ¨",
      "çĨĬ çĮ«",
      "ç¦ ģ",
      "çłĶ åıĳ",
      "ä»Ĭå¤© å¤©æ°Ķ",
      "æĪĳ ä»Ĭå¤©",
      "æĽ´ åĩĨç¡®",
      "æİ¨èįĲ ä¸ĢäºĽ",
      "åį« çĶŁ",
      "åĵºä¹³ åĬ¨çī©",
      "éĤ£ äºĽ",
      "çĲ ´",
      "åį §",
      "çĩ ķ",
      "åİ ¨",
      "çļĦæĦŁ è§ī",
      "æķ ı",
      "èı ²",
      "åį ł",
      "èĦ ¸",
      "çļĦæİ ¨",
      "åĨĻ è¯Ĺ",
      "å±ķ çİ°",
      "çĿ Ľ",
      "åĬĽ çļĦ",
      "æŃ£ å¼ı",
      "åīį æıĲ",
      "æĶ¯ éĵħç¬Ķ",
      "æµª è´¹",
      "ç¤¾ åĮº",
      "çļĦ çłĶç©¶",
      "çļĦæķ Ī",
      "çĮ« åĴª",
      "ç« ¹",
      "è£ Ļ",
      "çļĦæĻº èĥ½",
      "åŃĲ çļĦ",
      "æĹ¶ åħī",
      "éĺ ¶",
      "ä¼¦ æķ¦",
      "å¥³ æĢ§",
      "ï¼ī ãĢĤ",
      "ä¸Ģ åľº",
      "åıĺå¾Ĺ æĽ´åĬł",
      "åĵģ å°Ŀ",
      "ä¾¿ åĪ©",
      "ï¼ļ '",
      "è¯Ńæ³ķ åĴĮ",
      "å¤§ çº¦",
      "èª ī",
      "æ¬£ èµı",
      "ä½ł å¥½",
      "ä¼ ¯",
      "è¡ ¬",
      "ç£ ¨",
      "æī ¬",
      "ä¸į çŁ¥éģĵ",
      "å¸¸è§ģ çļĦ",
      "çļĦæ ¬",
      "é¢Ĺ ç³ĸæŀľ",
      "åİŁå§ĭ æĸĩæľ¬",
      "åĲĪéĢĤ çļĦ",
      "æµ· è¾¹",
      "äº Ī",
      "è£ ģ",
      "ãĢģ âĢľ",
      "çĻ ¼",
      "é¸ £",
      "è¿Ļæĺ¯ä¸Ģ ç¯ĩ",
      "æĸĩæ¡Ī çĶŁæĪĲ",
      "åľ¨ äºİ",
      "ç»ĵ è®º",
      "è¿ĺ éľĢè¦ģ",
      "éĢ ĥ",
      "åĵ ²",
      "çľĭ æ³ķ",
      "çļĦæ¸ ©",
      "æīĵ å¼Ģ",
      "éļ¾ ä»¥",
      "ä» Ļ",
      "çĲĨ è®º",
      "éĨ ī",
      "è®¡ç®Ĺæľº ç§ĳåŃ¦",
      "æľī ä¸ĢäºĽ",
      "æĳ ĩ",
      "èĦ ī",
      "éħĴ åºĹ",
      "çļĦæĥ³ æ³ķ",
      "è¦ģ çĤ¹",
      "ä¼ Ł",
      "æĶ¾ åľ¨",
      "å° º",
      "GPT æ¨¡åŀĭ",
      "ç»ĻæĪĳ ä¸ĢäºĽ",
      "æ¶ µ",
      "ä¸Ģ æľ¬",
      "å¦Ĥ æŃ¤",
      "æıĲ éĨĴ",
      "çĿ £",
      "æĪĳ åİ»",
      "å¹³ éĿ¢",
      "çĽ Ĵ",
      "å¯¹ äººç±»",
      "å¤ ®",
      "èĬ ³",
      "1 1",
      "æĦŁ åıĹåĪ°",
      "æĢ ķ",
      "å¯ Ĥ",
      "å¾Ī æľī",
      "åĽ¾ ä¹¦",
      "åĨľ ä¸ļ",
      "æĮĩ å®ļ",
      "æĭ ľ",
      "åĴĮ æ²»çĸĹ",
      "èİ·å¾Ĺ äºĨ",
      "ä¿® æŃ£",
      "çªģ çĦ¶",
      "è´ŁéĿ¢ å½±åĵį",
      "ä¸º ä¸Ģä¸ª",
      "ä¸Ģ ä»¶",
      "æł¹æį® æłĩé¢ĺ",
      "çĶ ĺ",
      "å°½ åı¯èĥ½",
      "çĳ ŀ",
      "å·¨ å¤§",
      "èįī èİĵ",
      "è¯· ä»İ",
      "æ¶ ²",
      "éĿŀå¸¸ æĦŁè°¢",
      "çļĦ åĲįç§°",
      "åıĬ åħ¶",
      "éģ µ",
      "é£Ł æĿĲ",
      "åĩ ¡",
      "è¿Ļ æ¬¡",
      "è®¿ éĹ®",
      "æľī çĤ¹",
      "ä¼ł æĴŃ",
      "ä¿® èº«",
      "èĤ º",
      "å¢ Ļ",
      "åĮ» éĻ¢",
      "æĸ¹éĿ¢ çļĦ",
      "æĸ°éĹ» æĸĩç«ł",
      "åĭ ķ",
      "æ¥ ļ",
      "çİ°åľ¨ è¯·ä½ł",
      "ä¿ Ĺ",
      "åº¦ è¿ĩ",
      "è¿Ķ åĽŀ",
      "æľĢ å¤§",
      "é² ģ",
      "æĭ Ĥ",
      "èİ ±",
      "çļĦæķ° éĩı",
      "ç¬¬ ä¸Ģä¸ª",
      "æĭ Ķ",
      "æģ Ĵ",
      "åĴĮ æĮĳæĪĺ",
      "çīĪ æľ¬",
      "ä¸º ä»¥ä¸ĭ",
      "æĽ °",
      "æĺ¯ å¤ļå°ĳ",
      "æ»¡ æĦı",
      "ç© Ĩ",
      "å½± åĥı",
      "æľĢ éĩįè¦ģçļĦ",
      "æĶ¯ ä»ĺ",
      "åıĹæ¬¢è¿İ çļĦ",
      "åħ³éĶ® åŃĹ",
      "èĳ ±",
      "æ·± åĳ¼åĲ¸",
      "äºĨ å¾Īå¤ļ",
      "2 5",
      "çº ¹",
      "çģ Ń",
      "æİĴ åĪĹ",
      "äº ¦",
      "çļĦ åħ·ä½ĵ",
      "å° ĺ",
      "è£ħ é¥°",
      "è¸ ª",
      "å°ıæĺİ åĴĮ",
      "ä¸ĭéĿ¢ çļĦåı¥åŃĲ",
      "æĻ´ æľĹ",
      "åľ¨ æľªæĿ¥",
      "å¼º çĥĪ",
      "éĢ Ĵ",
      "çļĦ ä½¿çĶ¨",
      "éĿ¢ ç§¯",
      "èĳ ¡èĲ",
      "èĳ¡èĲ Ħ",
      "ç¼ĸè¾ĳ ä»¥ä¸ĭåı¥åŃĲ",
      "çļĦæ¼ Ķ",
      "ç¼º ä¹ı",
      "å½ĵåľ° çļĦ",
      "å°± ä¸ļ",
      "ä»¥ ç¡®ä¿Ŀ",
      "æĸĩåĮĸ åĴĮ",
      "äºº åľ¨",
      "çļĦä¸Ģ ç§į",
      "åĳĪ çİ°",
      "åĵª ç§į",
      "å¤ľ æĻļ",
      "å¼ Ł",
      "æıĲä¾Ľ çļĦ",
      "èĢ į",
      "ç´§ å¼ł",
      "çĶļ èĩ³",
      "ç¾ ½",
      "é»ĳ æ´ŀ",
      "æĲ º",
      "éĻ¤ äºĨ",
      "çľ¼ çĿĽ",
      "æľĢ å¤§çļĦ",
      "æ¡ ĥ",
      "èĩª ä¸»",
      "è·¯ ä¸Ĭ",
      "è§Ħ æ¨¡",
      "åıĺ æĪĲ",
      "èĤ ´",
      "çī© ç§į",
      "çļĦæł ¸",
      "ç¼º çĤ¹",
      "åįģ å¹´",
      "éŁ© çīĪ",
      "æĢ§ èĥ½",
      "å¾Ĺ åĩº",
      "æĥħæĦŁ åĪĨæŀĲ",
      "å¯Ĩ çłģ",
      "æĦī æĤ¦",
      "éĢ Ĺ",
      "çĸĳ éĹ®",
      "çłĶç©¶ è¡¨æĺİ",
      "åıĬ æĹ¶",
      "åı¯ä»¥ æıĲé«ĺ",
      "è¿Ļ ä¸¤ä¸ª",
      "è§£åĨ³ éĹ®é¢ĺ",
      "è®° å¿Ĩ",
      "å¤§ æķ°æį®",
      "âĢĿ ãĢģâĢľ",
      "å®ŀ æĸ½",
      "èľ Ĥ",
      "çĽ® çļĦ",
      "åī ª",
      "æĻº æħ§",
      "åĽ¾åĥı è¯ĨåĪ«",
      "å¼Ģ å¤´",
      "ä¸Ģæ®µ æĸĩåŃĹ",
      "è§Ĥ çľĭ",
      "ç¨ İ",
      "åĿ Ģ",
      "èıľ åĵģ",
      "äºĨä¸Ģ ç§į",
      "ä½¿åħ¶æĽ´åĬł ç®Ģæ´ģ",
      "è¯ķ è¯ķ",
      "ç»Ļ äºĨ",
      "åĪĨ ä¸º",
      "æĽ ¼",
      "è®¤ è¯Ĩ",
      "Ġ æĪĳ",
      "éķ¿ æľŁ",
      "çļĦæĢ §",
      "éĺ µ",
      "åĢ¼å¾Ĺ ä¸Ģ",
      "ç»Ł è®¡",
      "èĥ ¡",
      "åıĤ è§Ĥ",
      "éģĩ åĪ°",
      "æĿ¥ æºĲ",
      "éĢ Ĭ",
      "å¸ ħ",
      "æĺ¨ æĻļ",
      "åª ļ",
      "è®¡ç®Ĺæľº è§Ĩè§ī",
      "å®Ŀ å®Ŀ",
      "åĪļ åĪļ",
      "ç¼ĸ åĨĻä¸Ģä¸ª",
      "è¿ĩ åº¦",
      "æĽ´ æŃ£",
      "Ġ åħ¶",
      "çļĦæı Ĳ",
      "èĤ¡ ç¥¨",
      "ãĢĤ âĢľ",
      "äºĴ åĬ¨",
      "åĪĹ ä¸¾",
      "çļĦæĮ ĩ",
      "æľĢè¿ĳ çļĦ",
      "æ·· åĲĪ",
      "æķ ¬",
      "æĸ° æ¬¾",
      "å®½ æĿ¾",
      "å¾Ī å¤§",
      "åħ¬ éĩĮ",
      "Ľ åĽ´",
      "æ¸© å®¤æ°Ķä½ĵ",
      "éĥ¨ éĹ¨",
      "æĺİ æĺ¾",
      "ä¸Ń æĢ§",
      "åĨ³ äºİ",
      "å¹¶ è¾ĵåĩº",
      "å¼Ģ å¿ĥ",
      "æĺ¯ åħ³äºİ",
      "é½ Ĳ",
      "åŃ¦ä¹ł ç¼ĸç¨ĭ",
      "åıĸ åĨ³äºİ",
      "ç§° ä¸º",
      "è¿Ļæ®µ æĸĩåŃĹ",
      "çº½çº¦ å¸Ĥ",
      "æĸĩ æĺİ",
      "ç§ »åĬ¨",
      "æĦı åĳ³",
      "åī Ĥ",
      "ä¸ŃæıĲåıĸ åĩº",
      "åıĸ æ¶Ī",
      "çĶ· åŃ©",
      "è¿Ľ å±ķ",
      "èĢĮ ä¸įæĺ¯",
      "æĮ Ĥ",
      "é£ŀ è¡Į",
      "åĲİ çļĦåı¥åŃĲ",
      "åĲ« æľī",
      "æıĲ ç¤º",
      "è¿ĺæľī åħ¶ä»ĸ",
      "åħ Ķ",
      "å°Ĭ éĩį",
      "æıĲåĩº äºĨ",
      "çļĦåħ³éĶ® ä¿¡æģ¯",
      "åĩº è¡Į",
      "ä¸ĭ éĻį",
      "åħħ åĪĨ",
      "æį ķ",
      "çļĦæĦı ä¹ī",
      "çİ¯ä¿Ŀ æĦıè¯Ĩ",
      "çī¹ æ®Ĭ",
      "å¾ Ĵ",
      "æĸ° åŀĭ",
      "ä¸ ¹",
      "æĢİä¹Ī æł·",
      "èĤ ĸ",
      "åı¯ä»¥ èĢĥèĻĳ",
      "å¦ ĩ",
      "çīĽ ä»Ķ",
      "äººå·¥æĻºèĥ½ çļĦåºĶçĶ¨",
      "åķĨ åºĹ",
      "é»ĳ èī²",
      "æĸ°éĹ» æłĩé¢ĺ",
      "1 6",
      "å¢ ¨",
      "æĻ Ĥ",
      "çļĦ åĲįåŃĹ",
      "å¸ Ń",
      "å¸ ½",
      "åĮº åŁŁ",
      "çļĦ çİ¯å¢ĥ",
      "æĺ¯ æĪĳ",
      "åħħæ»¡ äºĨ",
      "çĭ Ĥ",
      "åĪº æ¿Ģ",
      "åıĳ æĺİ",
      "è´¢ åĬ¡",
      "èī ¾",
      "åŁº åĽł",
      "è¯» ä¹¦",
      "èĩªçĦ¶ çģ¾å®³",
      "åı¯ä»¥ å°Ŀè¯ķ",
      "åĴĮ æľĭåıĭ",
      "è¾ ŀ",
      "äººä»¬ çļĦ",
      "åį° åº¦",
      "ä½ľ å®¶",
      "ä½ł æľīä»Ģä¹Ī",
      "æ· ĩ",
      "åĵĪ åĪ©",
      "å¤ªéĺ³ èĥ½",
      "é»Ħ èī²",
      "è®¾ ç½®",
      "ç» ¼",
[...]
